<unk>	0
<s>	0
</s>	0
_	-3.07117
▁	-3.68886
i	-4.0122
m	-4.11973
a	-4.16872
u	-4.23842
am	-4.63291
n	-5.02917
ta	-5.04006
ka	-5.14658
ana	-5.26014
r	-5.27277
na	-5.34447
l	-5.39422
t	-5.46555
ya	-5.52696
illata	-5.57663
s	-5.58398
e	-5.66146
ulla	-5.70533
ti	-5.71683
k	-5.72792
-	-5.7394
v	-5.77765
p	-5.8136
yam	-5.88462
an	-5.91454
▁k	-6.01814
▁a	-6.02838
ha	-6.0415
▁p	-6.0545
y	-6.08651
h	-6.08981
al	-6.14734
kam	-6.15809
da	-6.16081
nta	-6.19117
▁s	-6.19634
tta	-6.21513
ii	-6.22245
ni	-6.26063
▁c	-6.26385
ri	-6.2642
ma	-6.30994
ai	-6.31062
ar	-6.31271
nam	-6.32417
o	-6.36021
ra	-6.36639
tu	-6.40844
g	-6.42642
kalam	-6.44332
tam	-6.44612
ku	-6.46471
iya	-6.50221
▁ka	-6.51121
cey	-6.51589
va	-6.52318
lam	-6.53185
▁m	-6.55163
c	-6.56656
▁pa	-6.57824
akam	-6.62923
lu	-6.65026
vi	-6.65303
aam	-6.67717
atta	-6.67865
aina	-6.69908
ci	-6.73185
"	-6.73375
kk	-6.73459
,	-6.75725
▁n	-6.75747
__	-6.75847
b	-6.77454
▁"	-6.78133
d	-6.78372
rr	-6.78757
ru	-6.79387
pa	-6.79542
▁t	-6.79669
anam	-6.81165
ca	-6.81539
▁ta	-6.82665
li	-6.83325
la	-6.86096
uu	-6.87232
▁an	-6.87374
aa	-6.88109
ppu	-6.912
pp	-6.91594
nn	-6.92372
ram	-6.94772
yi	-6.96511
aya	-6.97431
▁par	-6.97569
in	-6.98349
at	-6.98835
ss	-6.98931
matam	-6.99
mm	-6.99566
iyam	-6.99891
il	-7.00326
cu	-7.00824
nna	-7.01062
mulla	-7.02375
tt	-7.02812
mana	-7.03413
iyal	-7.03426
uka	-7.04157
mam	-7.04349
sam	-7.04361
ay	-7.04551
sa	-7.05529
amana	-7.06216
millata	-7.06436
cam	-7.06681
adu	-7.0731
var	-7.08559
▁v	-7.09224
du	-7.13524
mu	-7.14467
tal	-7.16321
▁mul	-7.16352
▁ss	-7.17129
ak	-7.17246
alam	-7.17597
pu	-7.18917
▁kk	-7.20705
um	-7.21093
ina	-7.21272
su	-7.21554
ata	-7.21731
▁ma	-7.23413
▁j	-7.23793
yana	-7.26195
▁pira	-7.28025
▁ca	-7.28319
it	-7.28422
iri	-7.28656
▁po	-7.28822
▁h	-7.29005
▁va	-7.30699
tti	-7.30878
▁pat	-7.30958
iyamana	-7.33249
ppa	-7.33355
▁ko	-7.33847
ir	-7.34391
▁cam	-7.3498
en	-7.35226
av	-7.35525
ea	-7.3817
▁nir	-7.3843
kku	-7.39501
vanti	-7.39944
▁natu	-7.4017
▁kar	-7.40406
moli	-7.4049
kkaran	-7.40683
▁u	-7.41936
▁r	-7.42439
pam	-7.42947
yyaam	-7.4324
aammu	-7.43288
▁kavi	-7.43897
ayam	-7.44002
j	-7.44016
yulla	-7.44529
man	-7.44601
ttiikk	-7.44601
▁pe	-7.44745
iy	-7.4516
▁kal	-7.45559
ala	-7.45722
▁pala	-7.45769
ga	-7.46028
aamm	-7.46245
ttii	-7.4668
vv	-7.47421
rra	-7.47661
ttu	-7.47823
arra	-7.48028
illat	-7.48151
ki	-7.50397
kotu	-7.51704
▁sss	-7.52323
vada	-7.52555
rupay	-7.52565
sabd	-7.52608
ttam	-7.53199
ja	-7.53807
rar	-7.54386
nan	-7.55129
maram	-7.55275
▁b	-7.55932
llu	-7.56297
pat	-7.57513
▁nar	-7.57726
▁e	-7.5899
vali	-7.59193
amillata	-7.59551
aaamm	-7.59975
▁at	-7.6047
yil	-7.60565
▁kan	-7.61092
ali	-7.61227
yyaa	-7.61447
tiram	-7.6154
aar	-7.62842
▁cita	-7.63073
kal	-7.63087
danta	-7.63561
tamana	-7.63977
▁aa	-7.64012
vu	-7.64253
cattam	-7.6431
▁pista	-7.64461
▁vimana	-7.64593
▁vis	-7.64895
▁mmaa	-7.65018
iyana	-7.65086
riya	-7.66271
yaa	-7.67063
nata	-7.67805
▁mu	-7.67855
▁man	-7.67938
vaci	-7.68409
ham	-7.68579
latta	-7.68706
▁maru	-7.69213
▁ci	-7.69315
kan	-7.69664
et	-7.69665
▁ku	-7.70246
kar	-7.7088
_-	-7.71344
cca	-7.72011
tar	-7.72204
ll	-7.72281
ot	-7.72794
▁l	-7.72893
▁na	-7.73046
eti	-7.73144
ann	-7.73492
inta	-7.73945
niyam	-7.73989
ari	-7.74483
nira	-7.74891
mi	-7.75194
▁vi	-7.75295
oo	-7.75432
▁patt	-7.75622
vati	-7.75659
▁anu	-7.76024
▁nila	-7.76046
taa	-7.76117
ada	-7.76617
uk	-7.77026
▁g	-7.77128
si	-7.78182
tuka	-7.78777
yaya	-7.78874
mal	-7.79385
mmu	-7.80104
▁pal	-7.80283
▁pali	-7.80393
▁vv	-7.80637
par	-7.80725
oli	-7.80801
ettar	-7.81166
payanam	-7.81472
▁pu	-7.81612
kkal	-7.81678
vari	-7.81809
gu	-7.8219
▁le	-7.8271
▁kkk	-7.82833
kiram	-7.83012
kari	-7.83049
ara	-7.8459
as	-7.84783
▁sssaaa	-7.85275
▁mm	-7.85585
amaya	-7.85819
takam	-7.86009
ap	-7.86016
van	-7.86583
trar	-7.86652
uri	-7.86703
_-_	-7.87048
▁ninta	-7.87612
kkar	-7.88519
▁d	-7.89012
vam	-7.8907
▁tir	-7.89235
▁mmmaaa	-7.89978
▁ce	-7.89984
maya	-7.89996
yy	-7.90574
▁nalla	-7.90849
▁makaran	-7.909
gi	-7.90998
▁nera	-7.91398
cittiram	-7.91446
pi	-7.91778
▁ceru	-7.91841
di	-7.92182
aarr	-7.92286
rraa	-7.92826
▁cinna	-7.9288
ramana	-7.92903
▁vviissaad	-7.93287
▁tay	-7.9329
▁ala	-7.93389
ill	-7.94068
▁pata	-7.94078
bhas	-7.94244
pavam	-7.9434
gg	-7.94357
▁kala	-7.94439
nu	-7.95172
latca	-7.95575
iii	-7.95799
▁ssaa	-7.96079
▁sa	-7.96286
▁vata	-7.97237
nnu	-7.97503
jan	-7.9762
atam	-7.97659
saa	-7.97788
pari	-7.97817
▁kil	-7.97859
▁vai	-7.97984
▁alankaram	-7.98499
▁pati	-7.98937
ul	-7.99103
▁visa	-7.99379
yamana	-7.99836
talai	-7.99954
▁alu	-8.00048
▁hi	-8.00474
▁mat	-8.00479
tai	-8.00484
▁ist	-8.00636
adanta	-8.00883
tram	-8.01204
utal	-8.01386
nkam	-8.01439
▁aaa	-8.01483
▁patta	-8.01836
▁pay	-8.01993
ik	-8.02044
ia	-8.02141
▁car	-8.03001
atikar	-8.0366
kira	-8.03811
▁raja	-8.0452
lai	-8.04587
▁kkaa	-8.04699
ol	-8.04908
▁o	-8.05223
naa	-8.05278
dham	-8.05959
pap	-8.06001
▁ppprrraaa	-8.06494
▁anukulam	-8.06627
nnaam	-8.06835
rroo	-8.0687
ran	-8.07019
▁cim	-8.07051
▁parikacam	-8.07179
▁nankuram	-8.07247
▁niravi	-8.07271
▁akankaram	-8.07504
villada	-8.07537
nkalam	-8.07585
upakarana	-8.07635
▁atikara	-8.08017
cce	-8.08064
▁katal	-8.08126
▁re	-8.08176
▁ra	-8.08269
ggaam	-8.08549
▁hij	-8.08617
iyantira	-8.09107
▁kaya	-8.0912
▁manitan	-8.09145
▁vita	-8.09405
▁kutirai	-8.09652
▁yu	-8.10348
amm	-8.10372
lla	-8.10724
▁nakara	-8.1082
▁katai	-8.10873
ekam	-8.11009
iiyyaa	-8.1165
nnnaaamm	-8.11854
vatam	-8.12552
vvvaaa	-8.12768
▁ras	-8.12845
mpu	-8.12857
▁val	-8.13043
▁kha	-8.13118
▁pur	-8.13458
bbhhaa	-8.13725
rraamm	-8.13782
yo	-8.13852
dh	-8.14253
mar	-8.14342
karam	-8.14375
kka	-8.14913
▁cat	-8.14976
▁bb	-8.15248
▁anantama	-8.15904
hhaam	-8.16055
▁tt	-8.16207
arr	-8.16344
iyulla	-8.16528
▁mit	-8.16569
▁tai	-8.16945
ey	-8.17338
ssea	-8.17362
▁totta	-8.17534
tik	-8.17726
ye	-8.17886
nnn	-8.18041
amviillllaatdtaa	-8.18461
gam	-8.18568
▁natakam	-8.19246
▁tal	-8.1933
otti	-8.1969
jam	-8.19714
illi	-8.19723
aka	-8.19745
lala	-8.19812
▁rama	-8.20126
lo	-8.20146
▁tik	-8.20437
▁ketta	-8.20445
illa	-8.20755
▁pp	-8.20768
▁pen	-8.20821
▁pap	-8.21089
rattir	-8.21611
▁anantam	-8.21891
▁kul	-8.22032
▁kat	-8.2222
▁iru	-8.22244
▁sv	-8.22258
▁ira	-8.22399
▁aann	-8.22476
tipat	-8.22498
rri	-8.22902
▁pattu	-8.22953
▁ve	-8.22985
▁gg	-8.22989
ulu	-8.23007
ttil	-8.23909
iram	-8.2394
iyan	-8.24275
▁pani	-8.2442
▁upa	-8.24429
hu	-8.24504
▁kas	-8.25012
er	-8.25017
rrriii	-8.25079
viyapar	-8.25462
▁ro	-8.25509
ati	-8.25665
vana	-8.25755
▁pit	-8.2584
ott	-8.25959
▁iratta	-8.2615
▁hp	-8.26179
nir	-8.26227
utam	-8.26304
▁jana	-8.26327
punai	-8.2642
cai	-8.26428
yan	-8.26907
▁cillarai	-8.27166
▁haitrajan	-8.27184
▁anumati	-8.27194
aram	-8.27233
▁roman	-8.27237
▁tuvara	-8.27319
▁bp	-8.27322
▁jamin	-8.27341
▁cuvar	-8.27356
▁ppaatthhaa	-8.27393
hhhaaamm	-8.27417
akunam	-8.27429
▁vakku	-8.27632
▁mantiri	-8.27679
avada	-8.27831
▁upayokam	-8.2788
ampu	-8.27883
yuyu	-8.28117
▁cantirak	-8.28215
▁apa	-8.28382
atanam	-8.28752
▁i	-8.28762
akan	-8.28766
▁karvam	-8.28792
kkum	-8.28839
▁kattu	-8.29142
uci	-8.29559
ooottt	-8.29753
ajra	-8.29831
ho	-8.29838
▁kantam	-8.29893
▁anatai	-8.29945
caturyam	-8.29959
▁cama	-8.30013
▁aaannn	-8.30029
anu	-8.30151
varkkam	-8.30322
▁ccaa	-8.30337
▁tu	-8.30343
▁us	-8.30481
ge	-8.30538
avam	-8.3056
ssaam	-8.30588
▁tala	-8.30693
▁bbb	-8.30713
pipra	-8.30729
▁ppaa	-8.30777
▁ur	-8.30968
▁mukku	-8.3099
kanam	-8.30993
rrii	-8.31097
ceyyapp	-8.3134
vai	-8.31574
aann	-8.31793
yal	-8.31947
ttaam	-8.32136
ne	-8.32142
▁de	-8.32171
▁jjaa	-8.32176
▁nan	-8.3226
vvaa	-8.32352
▁gggaaa	-8.32387
cakkara	-8.32689
▁aaalll	-8.32898
iru	-8.329
▁cun	-8.32911
iras	-8.33199
te	-8.33521
▁niram	-8.33525
dyaa	-8.33531
rru	-8.33567
edy	-8.33639
attam	-8.33847
▁ccciii	-8.34028
▁bbhhaayyaa	-8.34323
iill	-8.35308
itu	-8.35365
vanna	-8.35373
nila	-8.35751
▁cayan	-8.36008
jati	-8.36042
patam	-8.36176
pamillata	-8.3671
etta	-8.36798
tttaaamm	-8.36958
mai	-8.36968
▁nira	-8.37057
mara	-8.37123
▁mun	-8.37148
▁vala	-8.37207
ntakalam	-8.37258
kala	-8.37274
▁sssaaammm	-8.3809
appatu	-8.38239
▁vali	-8.38305
▁vari	-8.38424
illada	-8.38556
akk	-8.38566
ek	-8.38663
atipat	-8.38728
vvu	-8.38987
inam	-8.39035
▁pena	-8.39423
▁vivara	-8.39448
▁can	-8.39806
▁kuru	-8.39856
▁ar	-8.40277
nt	-8.40475
iyada	-8.40525
▁tin	-8.4093
▁tan	-8.41045
ani	-8.41843
ad	-8.41988
▁yo	-8.42014
▁var	-8.42017
▁hh	-8.42121
▁kalai	-8.4244
▁viva	-8.42551
▁piraya	-8.42876
▁nnnaaa	-8.43002
naam	-8.43093
tani	-8.4316
kol	-8.43171
ac	-8.43194
▁jo	-8.43258
armo	-8.43426
▁sp	-8.43459
▁tak	-8.43534
llii	-8.4354
vetan	-8.44314
▁kkaallaa	-8.4433
▁kel	-8.44334
lanku	-8.44484
▁maka	-8.44823
catti	-8.44847
ili	-8.44941
▁pakka	-8.4575
▁kot	-8.45778
▁cil	-8.45783
niyamanam	-8.45818
▁aass	-8.45887
yatu	-8.46249
iyillat	-8.46304
hi	-8.46601
ammu	-8.47043
all	-8.47469
▁karp	-8.47519
aallaam	-8.47537
▁or	-8.47543
▁pav	-8.47552
-_	-8.47649
▁so	-8.47843
▁uyar	-8.47943
piranta	-8.47997
▁cin	-8.47997
op	-8.48073
kkkaaa	-8.48077
yyyaaa	-8.48266
▁ram	-8.48592
im	-8.49127
dd	-8.49194
mma	-8.49225
dina	-8.49277
▁mel	-8.49407
aaannnaaamm	-8.49463
cc	-8.49573
kutumpa	-8.49712
co	-8.49783
▁ni	-8.4988
▁naci	-8.50336
▁manita	-8.50398
▁irupatti	-8.50437
do	-8.50541
parava	-8.50551
▁motta	-8.50568
avun	-8.506
utaiya	-8.50612
no	-8.50641
▁ek	-8.50835
ent	-8.50945
ccaarr	-8.50984
kariyam	-8.51062
se	-8.51062
▁ten	-8.51092
anta	-8.5111
velai	-8.51144
niram	-8.51348
▁ak	-8.51353
ini	-8.51429
mmii	-8.51459
▁hpp	-8.51719
inra	-8.52074
ih	-8.52114
▁nnyyaayy	-8.52166
▁srilanka	-8.52166
▁turatirs	-8.52166
▁palavantam	-8.52167
▁urpatti	-8.52167
▁aktopa	-8.52168
▁vicesama	-8.52168
▁atayalam	-8.5217
▁akampavam	-8.52172
▁ja	-8.52176
▁ataiyalam	-8.52177
▁ciruttai	-8.5218
▁nepal	-8.52195
htaarm	-8.52198
cal	-8.52212
▁ruciy	-8.52217
sssaaamm	-8.52225
uunyn	-8.52257
▁atikamana	-8.52259
▁teliva	-8.52275
▁al	-8.52286
enmayil	-8.52321
▁pirakacam	-8.52335
aas	-8.5234
▁curiya	-8.52368
▁kalappu	-8.52368
▁tapal	-8.52463
lar	-8.52576
poru	-8.52599
kkunna	-8.5268
aprap	-8.52686
▁vivaram	-8.52705
maaam	-8.52715
▁avamana	-8.52722
▁hpuu	-8.52765
▁jjaallaa	-8.52783
uruva	-8.52801
▁kkaallu	-8.52915
▁panka	-8.52949
▁pakal	-8.52997
▁vettai	-8.5303
ba	-8.53051
▁uyarnta	-8.53066
▁kur	-8.53091
▁ap	-8.53152
katti	-8.53157
▁kastam	-8.53194
yyyaaamm	-8.53246
lli	-8.53262
▁sssuuu	-8.53282
▁tiviravat	-8.5332
▁tallu	-8.53361
▁por	-8.53475
▁munru	-8.53495
etu	-8.53577
▁atma	-8.53619
▁maunam	-8.53684
▁mey	-8.53699
▁pari	-8.53727
▁manora	-8.53839
▁ciru	-8.53961
pan	-8.53984
▁malaikkala	-8.54047
scae	-8.54089
atti	-8.54209
▁kaip	-8.54273
▁jeyi	-8.54346
▁lava	-8.54379
___	-8.544
▁arampam	-8.54431
atu	-8.54539
▁ankikar	-8.54649
avu	-8.54738
▁pucc	-8.5477
▁uppilla	-8.54877
sil	-8.54893
▁java	-8.54948
gaa	-8.55023
▁konca	-8.55097
▁retiy	-8.55103
▁vacanta	-8.55377
kkol	-8.55385
▁nal	-8.55682
lll	-8.55698
yu	-8.55716
▁katt	-8.55845
▁iyantira	-8.55869
▁rajya	-8.55935
▁anki	-8.56031
mr	-8.56073
▁ampu	-8.5625
ce	-8.56658
vvv	-8.56691
ant	-8.57018
sss	-8.57155
ur	-8.57394
le	-8.57403
▁kor	-8.57406
▁vara	-8.57472
▁mar	-8.57511
mutiya	-8.57825
bah	-8.58013
ava	-8.58237
cas	-8.58252
vmiillllaadtat	-8.58395
▁kuttu	-8.58542
▁mukk	-8.58657
niyan	-8.58698
▁kkuu	-8.58701
▁paccai	-8.58788
nil	-8.58886
▁ti	-8.58967
▁iti	-8.59277
▁apayam	-8.59435
▁kun	-8.59519
▁kiri	-8.59548
▁cayam	-8.59588
br	-8.59606
rrrbbbhhhaaavk	-8.59668
▁mutta	-8.59683
ee	-8.59885
lain	-8.59946
▁nattik	-8.59985
matiri	-8.60052
▁te	-8.60165
▁mantira	-8.60217
sas	-8.60305
ah	-8.60354
kilakk	-8.60389
go	-8.60465
attil	-8.60471
tanam	-8.605
kuli	-8.60598
▁kirama	-8.60626
kodu	-8.60811
▁virot	-8.60855
rrra	-8.61042
▁mo	-8.61132
bi	-8.61203
stani	-8.61204
▁katar	-8.61241
▁nay	-8.61283
ab	-8.61283
▁sva	-8.61463
▁muk	-8.61477
▁otta	-8.61498
▁jjjaaa	-8.616
ko	-8.61935
▁yyyuuu	-8.61935
▁mottam	-8.61964
▁pi	-8.61986
ygaa	-8.62226
hh	-8.62431
ssu	-8.625
kiya	-8.62548
kili	-8.6256
▁kanca	-8.62725
▁mak	-8.62808
▁mall	-8.63093
ban	-8.63099
▁vvaarr	-8.63161
rpa	-8.63531
mme	-8.6399
▁ll	-8.64048
▁natak	-8.64072
▁nat	-8.64189
rraannaam	-8.6432
kuttu	-8.64399
ve	-8.64454
bb	-8.64483
maa	-8.64515
laam	-8.6464
nal	-8.64813
▁konam	-8.64837
iyil	-8.64883
nnnggg	-8.64937
tuv	-8.64993
▁van	-8.65071
kannat	-8.65073
▁pprraa	-8.65177
▁tanka	-8.65323
nnam	-8.65537
idi	-8.65682
tiriyan	-8.65741
att	-8.66098
▁aan	-8.66188
▁penc	-8.66264
ic	-8.66271
aaavmmaaadyiaan	-8.66292
sm	-8.66297
pati	-8.66333
▁nava	-8.66401
llada	-8.66737
▁niyam	-8.66769
arsam	-8.66784
▁veli	-8.66874
hr	-8.67065
kkappat	-8.67161
nk	-8.67369
▁malakk	-8.67494
▁vvii	-8.67556
haa	-8.67772
▁tur	-8.67824
▁kila	-8.67827
▁yuva	-8.67901
aan	-8.68054
anna	-8.68061
oti	-8.68209
▁cu	-8.68261
▁mmuull	-8.68363
cci	-8.6876
suv	-8.68822
▁muti	-8.68915
adr	-8.68927
akalam	-8.69067
pakkam	-8.69099
▁apan	-8.69099
aaannnkkkaaarrra	-8.69158
rik	-8.69258
▁peni	-8.69513
tme	-8.69747
▁cakkaram	-8.69824
▁kus	-8.70063
▁katinam	-8.70063
icc	-8.70113
▁aks	-8.70126
kkuka	-8.70239
aaadddhhh	-8.7026
▁is	-8.70458
cama	-8.70487
▁turi	-8.70558
ciya	-8.70583
▁kanma	-8.70647
▁canta	-8.70753
aannttaa	-8.70995
▁el	-8.71195
iti	-8.7131
▁peru	-8.71464
▁payam	-8.71487
taram	-8.71645
mukam	-8.71658
▁antar	-8.71665
▁cey	-8.71758
ika	-8.71767
pal	-8.72208
ppap	-8.7228
▁uma	-8.7266
nik	-8.72754
adam	-8.72772
▁vira	-8.72853
▁palli	-8.72876
putti	-8.72966
aaalllaaamm	-8.73154
▁as	-8.73323
▁irupatt	-8.7336
upp	-8.73522
pppapa	-8.73599
dnaa	-8.7366
▁mut	-8.73737
nin	-8.74013
tka	-8.74034
▁ssaammaa	-8.74068
▁dd	-8.74189
utti	-8.74378
▁eccil	-8.74505
aakkaan	-8.74556
atci	-8.74682
kki	-8.74721
aannaam	-8.75232
niti	-8.75347
▁vvviii	-8.75347
mukha	-8.75406
▁mana	-8.7554
dah	-8.75544
▁tara	-8.7555
me	-8.75587
▁en	-8.75638
▁vvvaaa	-8.75649
▁kulam	-8.75658
aiyulla	-8.75859
aaarrr	-8.76105
rraam	-8.76169
karru	-8.76312
▁mara	-8.7637
▁jjj	-8.7643
▁puti	-8.76488
▁pir	-8.76704
ittal	-8.76747
petta	-8.76807
re	-8.76889
agam	-8.76954
▁palavinam	-8.7701
▁tel	-8.77461
▁kank	-8.77587
udu	-8.77897
maka	-8.78075
▁mmuu	-8.78116
▁pak	-8.78127
▁y	-8.7813
▁mmaarr	-8.78158
▁cir	-8.78205
▁yur	-8.78315
▁ppphhhaaa	-8.78358
ppatti	-8.78416
▁to	-8.78443
▁aarr	-8.78719
▁irakk	-8.78797
▁yyuu	-8.7883
▁melli	-8.78843
▁ket	-8.78903
etti	-8.78937
▁aaannnuuukkk	-8.79006
oodd	-8.79253
kai	-8.79274
dinda	-8.79387
ooo	-8.79511
▁cunt	-8.79617
id	-8.79679
▁rraajja	-8.79714
ras	-8.79777
vmaadyaa	-8.79903
▁mi	-8.79957
▁ttii	-8.79993
intu	-8.8024
llaa	-8.80266
mmmiii	-8.8036
vvvyyyaaa	-8.80493
vvii	-8.80644
puli	-8.8075
aad	-8.81116
▁cc	-8.81127
▁uta	-8.8119
enn	-8.81222
▁ut	-8.81274
ravada	-8.81337
▁tota	-8.81459
be	-8.81492
aanh	-8.81605
▁pavan	-8.81931
▁kali	-8.81965
nc	-8.81981
mec	-8.82042
nai	-8.82178
ndu	-8.82359
ug	-8.8241
nii	-8.82432
cakravaka	-8.82498
▁kutum	-8.82705
▁atar	-8.82792
tum	-8.83041
▁palam	-8.83077
siya	-8.83093
▁atir	-8.83291
natattu	-8.83294
▁pirac	-8.83648
▁tayi	-8.83705
pppaaarrriii	-8.83705
▁vvaa	-8.8383
konam	-8.83933
▁nnaa	-8.83991
▁pacca	-8.84048
tika	-8.84085
dda	-8.84114
▁yut	-8.84132
▁kutira	-8.84215
▁tav	-8.84265
▁puli	-8.8434
▁cantosam	-8.84391
▁para	-8.84451
▁mano	-8.84462
vela	-8.84894
ori	-8.8505
pen	-8.85099
ppp	-8.85133
bandha	-8.85139
rsp	-8.85189
▁ssaanntt	-8.85246
iillllaatdtaanta	-8.85307
▁pila	-8.8536
ankam	-8.85381
▁nisc	-8.85486
▁peeukkraand	-8.85499
▁pppuuurnnnaaar	-8.85499
rrroaojjjaaannn	-8.85499
ggrraahhaannaam	-8.85499
▁cccaaakkkrrraaa	-8.85499
▁santosa	-8.85499
▁truptiyagada	-8.85499
vvyyaappaarr	-8.85499
▁ajarpaijan	-8.855
▁mmmaaannnooov	-8.855
▁vitantavatam	-8.855
▁armeniya	-8.855
▁elupattiyett	-8.855
▁kavacamani	-8.855
▁aattmmaa	-8.855
▁mmaahhaappaap	-8.855
▁utpatti	-8.855
ihkiakra	-8.855
▁vviivvaarraan	-8.85501
nivasi	-8.85501
llaakkssaa	-8.85502
▁eccarikkai	-8.85502
rriikkssaa	-8.85504
▁pintallu	-8.85504
▁mmmiiill	-8.85504
▁mmuutttt	-8.85505
▁maniyoc	-8.85505
▁atankava	-8.85505
▁ssiitta	-8.85507
▁nnnaaagggaa	-8.85508
▁nnaallkuu	-8.85509
stoniya	-8.8551
▁naitre	-8.85512
lllaaakkksssaaa	-8.85515
▁hhhiiinnn	-8.85515
▁ppprrraaatttiii	-8.85517
▁mintum	-8.85517
▁irakkumati	-8.85518
▁kiristu	-8.85518
asvs	-8.85518
▁akatami	-8.85522
▁visaarav	-8.85526
▁peppar	-8.85526
▁accariya	-8.85529
▁cavvari	-8.85532
mmuurnun	-8.85533
▁mmmuuu	-8.85534
▁namaj	-8.85538
asmap	-8.85552
▁iyarka	-8.85552
▁cunnamp	-8.85561
oooddd	-8.85565
nnniiiyyyaaammm	-8.85567
▁niscita	-8.85571
▁hpee	-8.85571
▁kkaavvii	-8.85572
▁vvaaiiss	-8.85577
▁tutaykk	-8.85579
iiiddd	-8.85581
▁camatalam	-8.85602
▁rraammaa	-8.85603
▁kkkaaasss	-8.85612
▁urutti	-8.85623
▁kay	-8.85632
▁ratri	-8.85633
anknk	-8.85635
▁poruttam	-8.85647
▁irupattirant	-8.85649
▁necam	-8.85649
▁ppaakkssaa	-8.85654
▁arttam	-8.85669
▁kalavala	-8.85671
ayi	-8.85675
ttatnain	-8.85689
▁vicalam	-8.8569
▁rakaciyam	-8.85727
▁nnnaaavvv	-8.85734
▁urula	-8.85739
▁orum	-8.85775
▁pataki	-8.85804
▁pphhaa	-8.85844
piapta	-8.85845
ttrrra	-8.85875
▁payankarama	-8.85881
▁aniyayam	-8.85898
▁minnu	-8.85931
hma	-8.8594
adrusta	-8.85963
▁ppaaddaa	-8.85979
guku	-8.85994
▁aaasss	-8.86025
yviillllaatdtaa	-8.86115
▁kacca	-8.86133
▁ceri	-8.86149
▁penkutira	-8.86169
deaar	-8.86169
▁murukku	-8.86177
▁yaca	-8.86182
mp	-8.86189
yyiillllaadta	-8.86195
▁nimi	-8.86206
app	-8.8629
▁amha	-8.86299
liul	-8.86325
▁cokam	-8.86366
▁acarya	-8.86374
dam	-8.86375
▁ppaarr	-8.86375
▁vila	-8.8638
▁akasa	-8.86416
▁piramit	-8.86419
▁rraass	-8.86437
▁nanku	-8.86441
ase	-8.86447
▁ttaa	-8.86465
▁prac	-8.86493
▁atitta	-8.86503
rani	-8.86519
▁bbbaaa	-8.86584
dt	-8.86592
potu	-8.8663
▁snuk	-8.86641
aart	-8.86644
▁nakku	-8.86654
eekkaam	-8.86673
▁vacanaiy	-8.86685
tamarai	-8.86717
▁irani	-8.86727
▁anukulama	-8.86737
yrag	-8.86738
catarana	-8.86803
yantra	-8.86818
▁vamca	-8.86826
▁maratta	-8.86842
pani	-8.86875
▁nandi	-8.86958
▁camas	-8.86961
labhi	-8.8704
▁mmaanna	-8.87052
▁irukal	-8.87066
adada	-8.87084
bhava	-8.87188
▁vintum	-8.87223
ddd	-8.87236
▁manal	-8.87298
karamana	-8.87299
ttttttaaamm	-8.87432
alk	-8.87471
laksana	-8.87521
iva	-8.87602
▁amai	-8.87642
▁bbaallaa	-8.87656
avadanta	-8.87747
▁pallakk	-8.87853
▁cavu	-8.88014
pppaaamm	-8.88059
▁vir	-8.88059
▁nakal	-8.88106
es	-8.88139
ppati	-8.88155
▁ettu	-8.88194
▁dau	-8.88203
▁elam	-8.88365
▁venta	-8.88379
kunam	-8.88381
▁irattai	-8.88508
▁nanam	-8.88578
yanai	-8.88775
kir	-8.88818
▁murk	-8.8889
yilla	-8.88988
iiinnn	-8.89004
▁alukk	-8.8905
▁nintu	-8.89088
▁pakti	-8.89161
▁ccaannddrraa	-8.8922
st	-8.89259
▁ppp	-8.89311
vmaadiannata	-8.89329
▁kakka	-8.8941
vamata	-8.89457
illam	-8.89482
▁vvvaaarrr	-8.89563
▁ttaallaa	-8.89566
aky	-8.89602
ppi	-8.89655
hhi	-8.89825
to	-8.89959
▁kottu	-8.90009
tnik	-8.90079
rai	-8.9015
mpam	-8.90161
▁niti	-8.90174
▁cariv	-8.90249
ciki	-8.90298
▁tiram	-8.90343
uuppaa	-8.9037
irr	-8.90387
yyaan	-8.90393
▁bh	-8.90417
ppam	-8.90419
pmaat	-8.9053
takkal	-8.90557
ipalan	-8.90585
▁akast	-8.90644
gv	-8.90652
▁marramillat	-8.90727
llea	-8.91033
kkaa	-8.91048
paramparai	-8.9107
rrraaammm	-8.91101
▁orrumaiy	-8.91103
liya	-8.91133
iinn	-8.91134
dana	-8.91313
▁rree	-8.91314
kata	-8.91335
▁bbaa	-8.91354
▁vaya	-8.91433
pta	-8.91444
tak	-8.91558
▁in	-8.9165
▁ani	-8.9171
bha	-8.91801
rokam	-8.91826
capa	-8.91833
dayi	-8.91834
▁lep	-8.91891
▁talai	-8.919
rert	-8.91962
tttrrraaamm	-8.92005
lada	-8.92015
▁vanc	-8.92058
yaamm	-8.92068
▁pulipp	-8.92106
▁viyapar	-8.9215
alai	-8.92231
iiikkkaaarrraaa	-8.92248
manat	-8.9225
mmaa	-8.92262
papa	-8.92342
▁kutumpa	-8.92384
▁pada	-8.92412
cgaa	-8.92689
▁bala	-8.92762
unna	-8.9284
kot	-8.92841
▁marc	-8.93168
▁vetam	-8.93179
rn	-8.93324
mabma	-8.93325
is	-8.93341
pulli	-8.93373
kacam	-8.93389
luu	-8.9352
▁maran	-8.936
▁pirat	-8.93626
▁puka	-8.9365
▁aallaannkkaarra	-8.93794
▁pin	-8.93795
ttar	-8.93834
▁paksa	-8.93869
▁nul	-8.93954
▁pan	-8.94041
valai	-8.94104
▁nataka	-8.94233
▁hppaaa	-8.94265
▁ila	-8.94327
iaak	-8.94336
tma	-8.9437
▁ki	-8.94417
▁kurra	-8.94461
cer	-8.94561
llaam	-8.94618
vadanta	-8.94622
anai	-8.94752
akkam	-8.94753
eee	-8.94784
vannam	-8.9491
▁citt	-8.95141
▁kkoott	-8.95159
▁patinon	-8.95162
▁kuri	-8.95172
bal	-8.95267
▁aru	-8.95329
vanta	-8.95428
▁kkoo	-8.95477
rmaam	-8.95714
nis	-8.95716
▁makka	-8.95822
iiinnnaaa	-8.95857
aavmaadiannata	-8.95934
▁aran	-8.96105
mmaaadyiaannata	-8.96124
▁mmee	-8.96203
aranam	-8.96246
▁tampat	-8.96323
lulla	-8.96381
▁paip	-8.96412
▁ir	-8.96451
▁ker	-8.96598
▁uuppaa	-8.96712
▁annan	-8.96734
▁kkaarr	-8.96745
▁bv	-8.96756
▁tark	-8.96806
▁asti	-8.96845
▁parava	-8.96945
aru	-8.96962
▁no	-8.96994
▁nniilla	-8.97027
lil	-8.97148
bbaarr	-8.97199
▁sam	-8.97278
gram	-8.97306
▁ell	-8.97539
riyam	-8.97562
iv	-8.97605
uda	-8.9767
▁pprr	-8.97913
tr	-8.97916
▁tumpik	-8.97933
▁aamm	-8.97947
urani	-8.97951
val	-8.9812
▁muttam	-8.98174
nngg	-8.98252
manusa	-8.98614
▁munn	-8.9863
nku	-8.9875
otu	-8.9881
ttaa	-8.98838
▁rrraaa	-8.98958
atyam	-8.9904
inci	-8.99178
▁nanri	-8.99209
arru	-8.99223
aavmaadyaa	-8.99246
atyia	-8.99279
manam	-8.99296
vivek	-8.99299
▁kopam	-8.99324
▁atutt	-8.99357
gae	-8.99547
▁suk	-8.99589
nicca	-8.99675
▁ati	-8.99769
aurava	-8.99791
nuu	-8.99801
▁kati	-8.99857
puram	-8.99865
alu	-9.00112
nayi	-9.00134
▁mmm	-9.0025
▁kett	-9.00275
▁vela	-9.00479
anamana	-9.00642
▁mot	-9.01026
▁kalar	-9.01081
uttid	-9.01125
ny	-9.01272
ciyam	-9.01282
kke	-9.01504
▁munna	-9.01613
ppatu	-9.01928
▁eka	-9.02169
iann	-9.02175
▁ajar	-9.02275
lraa	-9.02326
mua	-9.02405
▁tattu	-9.02609
arupatu	-9.0261
pra	-9.02729
attu	-9.02833
macam	-9.0293
dv	-9.03092
▁ul	-9.03159
laras	-9.03334
pir	-9.03459
▁ari	-9.03557
aollii	-9.03589
▁cal	-9.03637
▁atti	-9.03681
▁camu	-9.03694
▁cantos	-9.03749
▁otu	-9.03914
▁aka	-9.04029
aaadtd	-9.04058
▁tira	-9.04101
▁varam	-9.04185
▁veppa	-9.04471
ssaa	-9.04513
▁acir	-9.04517
▁katinama	-9.04725
mnmaaan	-9.04804
attiri	-9.04926
undu	-9.0526
riy	-9.05275
uuss	-9.05429
ratyekama	-9.05445
krkr	-9.05546
▁rek	-9.05599
vala	-9.05608
kkkaaamm	-9.05683
▁kkkaaa	-9.05722
tat	-9.05816
kulam	-9.05844
▁jata	-9.06
asaya	-9.06239
vvaarr	-9.06292
avatam	-9.06433
vayu	-9.06465
akku	-9.06509
tnan	-9.06537
▁camuka	-9.06928
▁ita	-9.07102
▁bal	-9.07139
ck	-9.07266
▁etir	-9.07342
▁penn	-9.07382
kani	-9.07463
bh	-9.07773
vami	-9.0783
▁mulla	-9.07901
nniiyyaamm	-9.07953
aaa	-9.08076
yillat	-9.08109
▁pot	-9.08185
▁rraa	-9.08331
epa	-9.08406
ke	-9.08421
ut	-9.08476
▁matam	-9.08539
▁jjaann	-9.08622
▁cav	-9.08692
▁ccii	-9.08809
mas	-9.08896
uv	-9.09246
▁kir	-9.09249
iu	-9.0933
inal	-9.09403
mb	-9.09452
nyy	-9.09456
iin	-9.09731
▁kola	-9.09885
lan	-9.10252
▁pas	-9.10297
amma	-9.10382
▁tanti	-9.10459
snu	-9.10483
astuti	-9.10515
akacam	-9.10555
agu	-9.10616
▁ppa	-9.10616
▁kannat	-9.10628
vga	-9.10789
mdaaa	-9.10876
▁cakkara	-9.10951
▁catta	-9.11057
ikkappat	-9.11109
idy	-9.11218
▁ankat	-9.11501
de	-9.11623
iisi	-9.1185
kkiyam	-9.11965
▁sar	-9.12116
rrs	-9.12268
ok	-9.12457
paka	-9.12567
ipp	-9.12597
jj	-9.12762
▁cavi	-9.12767
laik	-9.1277
aat	-9.12798
▁pul	-9.12887
▁vel	-9.13088
▁satta	-9.13138
▁kva	-9.13303
lkkaran	-9.13338
uaapy	-9.13712
▁elutat	-9.13742
taha	-9.13795
aaammm	-9.13878
nki	-9.13916
▁mull	-9.13927
▁kai	-9.13965
▁anca	-9.14065
vvaam	-9.14182
▁tar	-9.14511
yamam	-9.14593
ettu	-9.14651
ip	-9.14667
▁kanj	-9.14762
▁patinan	-9.14797
ccii	-9.14897
ratn	-9.15
ttrraam	-9.151
anti	-9.15129
intnt	-9.15153
lantar	-9.15405
iirr	-9.15451
adyaa	-9.15463
rraaa	-9.1549
uryo	-9.15503
ntnta	-9.15747
▁viparitam	-9.15834
▁catt	-9.15866
panta	-9.15869
lluu	-9.16095
▁kalav	-9.1623
▁makapa	-9.16251
mpan	-9.16627
mariya	-9.16629
▁raj	-9.16763
▁katu	-9.16876
nada	-9.169
▁ccaannddrraakk	-9.17056
akkattil	-9.17173
oonniiyyaa	-9.17265
hhaarrmm	-9.17295
▁kalam	-9.17555
iiyyaamm	-9.1758
on	-9.17591
oriya	-9.17737
ira	-9.17806
aass	-9.1793
sisi	-9.17941
▁ssaamm	-9.18011
▁niyayam	-9.18054
▁sama	-9.18084
iillllaa	-9.18146
itaiveli	-9.18147
kaiy	-9.18176
aakma	-9.18211
kistan	-9.18316
▁kkrrii	-9.18496
▁vviiss	-9.18502
▁llii	-9.18535
llliii	-9.18557
▁ac	-9.1863
▁pppaaattthhhaa	-9.18634
ikkatta	-9.18661
ts	-9.18698
aanmnaa	-9.18716
uullllaa	-9.18897
ikkata	-9.18958
uuk	-9.1897
numanam	-9.18993
▁put	-9.19086
▁karat	-9.19217
▁er	-9.19287
▁maral	-9.19504
▁aokk	-9.19625
hhhaaannnaaamm	-9.19791
lhaa	-9.19826
maam	-9.19955
▁jj	-9.20124
▁mmaahhaa	-9.20168
▁ppii	-9.20201
▁path	-9.20475
▁am	-9.20625
talam	-9.20735
hm	-9.20752
▁ske	-9.20835
ag	-9.21101
vva	-9.21141
iay	-9.21209
gir	-9.2122
urru	-9.21254
taamm	-9.21261
ttal	-9.21418
▁alankari	-9.21435
cali	-9.21506
vvaann	-9.21628
▁ini	-9.21781
ed	-9.21869
tek	-9.21913
rpana	-9.21946
▁rani	-9.22006
ej	-9.22014
hiii	-9.2208
marun	-9.2212
rant	-9.22128
mpar	-9.22283
▁katti	-9.22325
tap	-9.2235
▁ot	-9.2242
ibhas	-9.22455
aem	-9.22487
▁ssvv	-9.22522
▁ppuu	-9.22555
ulam	-9.22564
▁satt	-9.22595
ialy	-9.22713
intakalam	-9.22763
aramana	-9.22909
antu	-9.22995
yya	-9.23037
▁viv	-9.2309
ige	-9.23174
aak	-9.23176
vata	-9.23323
aavmiillllaadtat	-9.23341
▁aga	-9.23392
▁tott	-9.23435
hea	-9.23526
ccaram	-9.23543
accinna	-9.23627
▁pirak	-9.23727
aasnaan	-9.23745
▁potta	-9.23803
ral	-9.23985
pphh	-9.24244
▁vilu	-9.24346
dddhhhaaa	-9.24488
drua	-9.24521
▁pphh	-9.24626
▁poru	-9.24627
anayaka	-9.24643
ddduu	-9.24729
aag	-9.24915
inmn	-9.24949
▁cak	-9.25093
uval	-9.25216
up	-9.25338
nuru	-9.25476
▁unmai	-9.25479
▁paccaik	-9.25506
▁ju	-9.25526
▁cur	-9.2568
▁porat	-9.25701
aatta	-9.25722
▁kani	-9.25743
dr	-9.25809
akki	-9.25813
un	-9.25947
ena	-9.26198
▁putt	-9.26301
akkaall	-9.26332
rca	-9.26408
▁pac	-9.26458
▁parsa	-9.26477
▁apaya	-9.26486
ro	-9.26562
gala	-9.26568
▁totakk	-9.26722
▁cank	-9.26861
kko	-9.27024
▁bboo	-9.2724
lumpu	-9.27263
rnra	-9.27323
▁taniya	-9.27325
▁kutta	-9.27329
▁alav	-9.27358
arma	-9.27378
nnnyyyaaayyya	-9.27403
▁hpaallllii	-9.27462
rana	-9.27492
irik	-9.27616
▁pott	-9.2767
▁tol	-9.27708
▁vvee	-9.28091
lllaaannnkkkaaa	-9.2814
ssii	-9.28198
nhh	-9.28227
kkam	-9.28234
▁catur	-9.28291
uva	-9.28332
▁kod	-9.28378
nattai	-9.28379
▁tamara	-9.28445
mitti	-9.28468
▁niyami	-9.28503
rarr	-9.28539
stam	-9.2857
aayyaa	-9.28579
ud	-9.28632
llaadtatnata	-9.28633
aadmaa	-9.28704
malli	-9.28823
▁kili	-9.28842
jin	-9.28947
▁vil	-9.28988
gva	-9.29007
kguu	-9.29276
▁bbbhhh	-9.29399
▁rr	-9.29447
▁kappal	-9.29628
▁bbhh	-9.29681
▁tttaaa	-9.30242
▁vett	-9.30378
nnal	-9.30415
aintu	-9.30451
ridi	-9.30453
ampar	-9.308
▁mmmaaannn	-9.30863
el	-9.31076
arnta	-9.31151
pera	-9.31156
ddih	-9.31248
tantira	-9.31263
ttayat	-9.31347
iiisss	-9.31355
aval	-9.31405
kuti	-9.31464
▁kantaka	-9.31469
amillat	-9.31563
kkaallaamm	-9.31585
▁kaluta	-9.31649
▁kotta	-9.31671
▁marram	-9.31703
▁panr	-9.31767
▁ret	-9.31802
can	-9.31864
navinama	-9.31997
aakk	-9.32072
ntai	-9.32199
rrraaa	-9.3222
▁cen	-9.32241
sist	-9.32363
ppett	-9.3243
him	-9.32504
ssaannttoossaa	-9.32561
day	-9.32591
he	-9.32639
▁pra	-9.32672
iinnaa	-9.32746
vintum	-9.32766
▁uyarn	-9.32801
kutirai	-9.32889
munru	-9.32932
pavan	-9.3296
▁elu	-9.3309
ynaaa	-9.33091
vmaad	-9.33107
pppaaakkk	-9.33137
maaya	-9.33244
▁kast	-9.33245
pasa	-9.33272
anya	-9.33335
eeeppp	-9.33355
aravada	-9.33417
did	-9.33421
kkkuuu	-9.33465
hrai	-9.33792
▁tivira	-9.33821
anma	-9.33966
avan	-9.34003
upayokam	-9.34126
ian	-9.34162
taykka	-9.34339
lnl	-9.34344
tiyana	-9.34355
tttiiikkk	-9.34373
varu	-9.344
▁iiprpuaptatt	-9.34416
kkaarr	-9.34417
ass	-9.34446
▁kkaak	-9.34468
sap	-9.34546
rit	-9.34587
▁vvv	-9.34603
appar	-9.34613
▁aannuukkuullaa	-9.34677
ikkappet	-9.3482
sssaaakkk	-9.34849
▁tirupti	-9.34852
aarree	-9.34858
▁mani	-9.34923
▁ksana	-9.3493
hhaa	-9.34966
palam	-9.34995
aallaav	-9.35047
▁hhh	-9.35062
aayyaam	-9.35063
ppul	-9.35077
▁mmaannoo	-9.35098
▁tttiii	-9.35109
ketta	-9.3517
pela	-9.35261
pakar	-9.35326
sii	-9.35341
▁vvviiisssaaa	-9.3536
▁talaik	-9.35369
accu	-9.35378
▁ccaakkrraa	-9.35416
arkkam	-9.3542
tukona	-9.35445
lillaldaatnttaa	-9.35487
▁knainyuanm	-9.35497
kaallaam	-9.35497
aasnnaaan	-9.35498
dahhdiihk	-9.35499
aitsjranasatnraa	-9.35499
uuulllaaakmmaaar	-9.35499
▁kkaassttuurrii	-9.35499
llllllaaarrreaa	-9.35499
▁aaabbbhh	-9.35499
▁aabhhainmkaanr	-9.35499
▁aoakkk	-9.35499
▁cakravarti	-9.35499
▁kkkiiilllooogg	-9.35499
▁uccarikka	-9.35499
aprraiihhhaaasss	-9.35499
▁bbbaaaiiibbbai	-9.35499
▁bvvaaanrrnnnan	-9.35499
▁ggaannddhhaa	-9.35499
▁homiyop	-9.35499
▁mmmuuullnlldu	-9.35499
▁pepparveyi	-9.35499
▁vviisseessaav	-9.35499
aaddrrussttaa	-9.35499
ilggirrgaarm	-9.35499
pepenenann	-9.35499
viippaarriittaam	-9.35499
vsiiykaavmaadyaa	-9.35499
▁aaauuunnnsssu	-9.35499
▁atmatirupti	-9.35499
▁bveellllii	-9.35499
▁cakravarttiyin	-9.35499
▁cciillllaarrea	-9.35499
▁nniimmiissaam	-9.35499
▁pprraassaavvaam	-9.35499
▁ppuurnnaarr	-9.35499
▁rrraaajjjyy	-9.35499
▁sssuuuccciii	-9.35499
▁ttaappaallu	-9.35499
eaammmbbbaaarrr	-9.355
sssaaannnkkkhhh	-9.355
▁arivukura	-9.355
▁avarttana	-9.355
▁curukkelutt	-9.355
▁nnaaiittrr	-9.355
▁vitandavadam	-9.355
▁vviiddhhaa	-9.355
▁hpaattttu	-9.355
▁iiannnggg	-9.355
▁kkaatthhiinn	-9.355
▁orraikkannu	-9.355
▁rrrooommmaaannn	-9.355
▁sloveniya	-9.355
▁vevver	-9.355
▁cccaaannnddd	-9.355
▁rraajjyyaa	-9.355
▁rumaniya	-9.355
▁marrantay	-9.355
▁nurrant	-9.355
dtahadidhkhiaikr	-9.355
▁lakto	-9.355
▁ratcaca	-9.355
▁aannggiikkaarra	-9.355
▁aannuummaa	-9.355
▁mmmaaadtdar	-9.355
▁pullankulal	-9.355
ssaakkuunnaam	-9.355
uttshhtaahnnaiin	-9.355
▁aaahhh	-9.355
▁aahhaannkkaarr	-9.355
▁kkaannnnaadt	-9.355
pardaadyaa	-9.355
skptaua	-9.355
▁rauttiram	-9.355
▁dhairya	-9.35501
▁kkkarryi	-9.35501
▁iissllaamm	-9.35501
▁otippo	-9.35501
▁comperiya	-9.35501
▁mmaannttrrii	-9.35501
▁kampiyilla	-9.35501
▁valarttuk	-9.35501
kunkumap	-9.35502
▁ssuurryy	-9.35502
▁kaiyopp	-9.35502
▁oluku	-9.35502
▁gandha	-9.35502
▁kkaaprp	-9.35503
vvveeekkkaaamm	-9.35503
pmpaaat	-9.35503
porutkal	-9.35503
▁nilakkatala	-9.35503
▁gguurruu	-9.35503
▁vviimmaannaa	-9.35503
▁vvaassaannttaa	-9.35504
▁gghhoo	-9.35504
▁kkoonnc	-9.35504
▁arumatan	-9.35504
▁karrottam	-9.35505
▁malaikot	-9.35505
▁jjaammiinnu	-9.35505
▁arambha	-9.35506
▁nicciya	-9.35506
▁nnaattaakk	-9.35506
ddeess	-9.35506
kantupiti	-9.35506
ahiadi	-9.35507
yyyeaa	-9.35507
▁ppaarriippaa	-9.35507
hhhaaasssaaamm	-9.35507
kkaaavvvaiinttaa	-9.35507
▁balahina	-9.35507
▁hirank	-9.35508
▁narumanam	-9.35508
▁tonnur	-9.35508
▁aaapppaaayy	-9.35508
▁bbeellllaam	-9.35508
▁ssaattyyaam	-9.35509
▁kutumpacampa	-9.35509
▁ssaannkk	-9.35509
▁yyyuuugggaaamm	-9.3551
aavssa	-9.3551
ayyuit	-9.3551
kuapraa	-9.3551
▁aaggaa	-9.35511
yeluttup	-9.35511
totarp	-9.35511
▁mmmaaahhhaaa	-9.35511
asvaimlillaldaat	-9.35511
▁kkkaaattthhheaa	-9.35512
▁vvaammssaa	-9.35512
▁pppeeennnn	-9.35513
gggrrraaa	-9.35513
▁niccalk	-9.35515
eeetrtarararr	-9.35515
▁uruvamillata	-9.35516
bbbhhhaaasssea	-9.35516
sadty	-9.35516
▁lainin	-9.35517
arddid	-9.35519
arroogg	-9.35519
▁uuusssnn	-9.35519
sthana	-9.35519
▁mmuukkhh	-9.35519
trtraraamm	-9.35521
canto	-9.35522
▁hpaadtiinnee	-9.35522
▁jappani	-9.35523
▁litas	-9.35524
▁kurotam	-9.35524
▁mannenn	-9.35526
▁vicarana	-9.35526
▁valukkal	-9.3553
ppetutta	-9.35531
ryraaa	-9.35531
▁pencemmari	-9.35532
rrraaakkkaaamm	-9.35532
▁pppiiissst	-9.35533
▁valarcc	-9.35533
pppupu	-9.35534
▁teyila	-9.35534
▁vvvaaakkk	-9.35535
▁mmmuuulll	-9.35536
▁rrraaanj	-9.35536
arattil	-9.35537
▁astami	-9.35537
▁pppie	-9.35539
▁kkaarrbba	-9.35539
▁tttaaakkkak	-9.35539
▁ajir	-9.35541
▁kaivilan	-9.35541
▁latviya	-9.35541
▁cularru	-9.35543
roop	-9.35545
uukkaammppaa	-9.35545
▁nnaattay	-9.35546
▁prakas	-9.35546
haitr	-9.35546
lunki	-9.35547
▁hppuuu	-9.35547
▁ammayilla	-9.35548
aarnnaaann	-9.35553
▁helik	-9.35554
▁curralav	-9.35558
▁untakku	-9.3556
▁ssaany	-9.3556
▁ippolu	-9.35562
▁ppiisst	-9.35563
▁vaykku	-9.35564
rraaarmma	-9.35565
▁naaih	-9.35566
▁velliniram	-9.35567
▁aaammmlllaa	-9.35569
▁nutana	-9.35571
▁iiprpuaptattet	-9.35571
uussttah	-9.35574
▁rrraaajjjaau	-9.35575
nnaddn	-9.35575
nnniiitttiii	-9.35576
▁jjjooo	-9.35577
nnjs	-9.35581
drust	-9.35584
▁kkklll	-9.35585
eccarike	-9.35585
tctc	-9.35585
▁ccaakkrraavvaa	-9.35585
yyooggaa	-9.35586
vinanta	-9.35587
daainntaa	-9.3559
▁vitaykka	-9.35592
rrriiikkksssaaa	-9.35592
etukkapp	-9.35594
▁potuva	-9.35594
▁uuddaa	-9.35596
▁ituvar	-9.35597
▁vvvaaaiii	-9.35602
uidrd	-9.35605
iiadd	-9.35608
▁jjoo	-9.35609
▁natoti	-9.35613
bkha	-9.35613
ryua	-9.35618
▁arpanan	-9.35621
▁kkkaaattthhh	-9.35623
▁ccee	-9.35624
▁kkahna	-9.35624
▁ssaammaujha	-9.35625
▁aappaavvaadda	-9.35628
▁pprraakkaassaam	-9.35629
▁valukku	-9.35633
▁muraiy	-9.35639
ayikkappet	-9.35644
▁mmmaaannnuu	-9.35649
▁nnnaaattta	-9.35652
▁vvviiisssaaad	-9.35656
▁bbhhuu	-9.35661
gggiiikkkaaarrra	-9.35665
tttrrriii	-9.35672
▁hhiinn	-9.35675
▁cumat	-9.35676
nadnin	-9.35676
▁uyir	-9.35679
▁ppuuss	-9.35683
tltaa	-9.35684
os	-9.35692
rkiay	-9.35693
eertr	-9.35705
▁ssuunn	-9.3571
▁sssaaammmaaannn	-9.35711
▁verupp	-9.35712
▁pprraattii	-9.35715
▁bbbaaalllaaatt	-9.35716
▁abhi	-9.35718
▁ekantama	-9.35722
▁mayilp	-9.35723
ggaann	-9.35726
▁loha	-9.35729
aadnh	-9.35736
▁pukalt	-9.35738
▁inipp	-9.35739
▁vvveee	-9.35743
▁ggaarrvvaa	-9.35744
▁muluva	-9.35748
▁vicari	-9.35759
▁sopp	-9.35779
▁ssiimmhhaa	-9.35782
adlia	-9.35788
▁ssnneehhaam	-9.35795
▁nnaavv	-9.35796
▁nilavu	-9.35799
dlaa	-9.35804
▁hhhaaa	-9.35812
andduu	-9.35812
▁nnaayy	-9.35814
▁ssaammss	-9.35817
▁aammaann	-9.35823
amtatd	-9.35824
murai	-9.35828
▁turanna	-9.35829
▁lanca	-9.35831
▁turattu	-9.3584
▁miccam	-9.35844
▁pinne	-9.35845
yyyaaannn	-9.35853
▁aman	-9.35857
▁coppu	-9.35885
▁vvaakk	-9.35886
▁muyal	-9.35889
erri	-9.35896
▁uuupppaaa	-9.35897
yykaaa	-9.35898
oudt	-9.35905
▁aaatttmmmaaa	-9.35907
▁munnil	-9.35909
nntd	-9.35909
cemmari	-9.35912
dndi	-9.35919
▁stra	-9.35929
▁velaikkara	-9.35931
▁nnaammaa	-9.35933
▁llaavvaa	-9.35945
▁jvaa	-9.35954
aattaannkkaa	-9.35957
▁eluttu	-9.35957
▁mmuullllu	-9.3596
kkaarrii	-9.35962
khhaatt	-9.35963
▁mukkilla	-9.35965
nagya	-9.35969
▁rraakk	-9.35983
miaan	-9.35985
▁sanar	-9.35985
▁upaca	-9.35994
baah	-9.3601
▁tolilal	-9.36018
▁cevit	-9.36019
▁antya	-9.36022
aaammmpppaaa	-9.36024
▁kanniru	-9.36044
▁onpatu	-9.36045
▁virun	-9.36045
ooppp	-9.36051
arakkura	-9.36059
ddaarru	-9.3607
vaavdaid	-9.36084
pppaaa	-9.36093
▁kkoonna	-9.36099
dsaia	-9.36114
nibandhan	-9.36115
▁cciirra	-9.36119
▁namb	-9.3612
smas	-9.3612
▁bbaatta	-9.36135
▁vayatu	-9.3614
▁bbbhhhuuu	-9.36144
▁marron	-9.3615
kakka	-9.36152
▁ttaarrkkak	-9.36152
hhtaaarr	-9.36161
▁vviissaak	-9.36162
▁enpat	-9.36171
▁ssee	-9.36189
▁elipp	-9.36198
aaddhhaannaa	-9.36214
▁akrami	-9.36219
nmh	-9.36241
▁tiruptiy	-9.36275
▁mmyaa	-9.36278
kkkakar	-9.3629
tttatanan	-9.36292
▁cciittraa	-9.36297
raru	-9.36299
vacan	-9.36302
▁petm	-9.36334
▁talnta	-9.36338
▁lllaaavvvaaa	-9.36351
vartti	-9.36355
cintanai	-9.3636
rrraaasss	-9.36368
▁bbhhaakktt	-9.36413
▁pattonpat	-9.36424
▁nniiyyaammaa	-9.36442
▁kuyava	-9.36444
manikkapp	-9.36445
ktaai	-9.36455
▁vittu	-9.36467
aajsa	-9.3647
kaparn	-9.36471
uavs	-9.36472
tttte	-9.36484
▁valura	-9.36493
▁karpan	-9.36516
▁kkssaa	-9.36518
▁iiprpuaptattat	-9.36522
▁ilaiy	-9.36523
gaaannniiitttaaa	-9.36529
urrava	-9.36553
nka	-9.36556
babh	-9.36565
▁yyaannttrra	-9.3661
kkana	-9.36619
naaavvvaaa	-9.36642
avaci	-9.3666
naagm	-9.36686
▁mutiv	-9.36725
tupi	-9.36747
▁kollai	-9.36767
▁vimar	-9.36767
untai	-9.36768
▁ayut	-9.36779
nniittii	-9.36793
▁vanampat	-9.36794
iidd	-9.3681
koriya	-9.36829
▁ttaammm	-9.36836
▁arivilla	-9.36856
masta	-9.36885
llluu	-9.36894
▁ppeenn	-9.36896
peuk	-9.36899
▁kkkrrriii	-9.36913
aacccc	-9.36921
tirugi	-9.36951
▁ven	-9.3696
geua	-9.36961
▁dduurr	-9.36966
neratti	-9.36967
iyiyaya	-9.36969
hdah	-9.36974
▁kalura	-9.36977
arrraaa	-9.3698
pupr	-9.36983
▁elutu	-9.36998
kollu	-9.36998
▁matav	-9.37
udh	-9.37004
▁irupatton	-9.3702
cukkan	-9.37025
▁tivrava	-9.37039
▁vatakku	-9.37058
yrya	-9.371
iiimmmaaa	-9.371
▁ppaattttiik	-9.37119
asa	-9.37121
iittaam	-9.37124
▁kkll	-9.37129
mint	-9.37149
▁ennu	-9.37224
▁kanakku	-9.3726
▁aaakkka	-9.37284
▁cep	-9.37315
▁citra	-9.37319
hida	-9.37321
vasa	-9.37327
▁nneerraay	-9.37344
tsi	-9.37353
▁veru	-9.37383
iijjaann	-9.37422
ksas	-9.37441
▁vant	-9.37476
kalakku	-9.37522
▁tayar	-9.37557
siisi	-9.37577
▁nniirr	-9.37598
arrroooggg	-9.37627
eett	-9.37643
tttaaarrr	-9.37709
aassttuu	-9.37734
vaaas	-9.37734
aaammmiii	-9.37761
dvuu	-9.37779
▁haj	-9.37781
▁ceriya	-9.3781
rgga	-9.37822
iinla	-9.37836
aakllai	-9.37837
▁jir	-9.37838
aklaalma	-9.37842
hyiap	-9.37849
lavar	-9.37858
▁nont	-9.37873
▁talir	-9.37884
appil	-9.37922
dad	-9.37937
aannjjaann	-9.37958
▁spu	-9.37961
▁nmaa	-9.37968
aabrr	-9.37974
▁mapat	-9.3803
ddaam	-9.38037
▁kappu	-9.38051
rreass	-9.38103
▁irantu	-9.38103
umiyillat	-9.38114
yiayma	-9.38164
uppu	-9.38167
▁natipp	-9.38173
gkek	-9.38183
iyunna	-9.38206
ppep	-9.38213
▁ciriya	-9.38277
ouo	-9.38402
aaiiddrroajjaann	-9.38423
irakan	-9.38472
▁accu	-9.38488
ammbbaarr	-9.38499
▁varni	-9.38517
▁ssaannttoossaa	-9.38525
nad	-9.38532
uylu	-9.38538
larva	-9.38554
▁pppaaakkk	-9.38568
▁natanam	-9.38583
jaja	-9.38622
vnv	-9.38696
▁eell	-9.38712
▁tenir	-9.38745
▁nn	-9.3878
▁oman	-9.38861
▁mantri	-9.38866
nnneee	-9.38968
vmvaaa	-9.3898
starn	-9.38985
yaams	-9.38989
▁sstt	-9.39021
kur	-9.39034
▁jjjaaannn	-9.39056
kamana	-9.39081
▁nasi	-9.39085
ranik	-9.39089
▁jap	-9.3909
lrai	-9.39121
mad	-9.3914
kkkii	-9.39141
nainr	-9.39222
▁kkaatttti	-9.39242
▁vilunn	-9.39263
rrttit	-9.39321
▁kkkuuu	-9.39323
▁kath	-9.39345
ammo	-9.39445
▁vilunk	-9.3945
arrin	-9.39453
▁punna	-9.39453
▁kkkooottt	-9.39461
ttthhhaaa	-9.39513
▁cemp	-9.39548
▁tuli	-9.39654
ssaabb	-9.39672
▁piracur	-9.39673
tirai	-9.39693
▁rreeddiiyy	-9.39703
allppaajjnnaanni	-9.39706
rrru	-9.39707
mmmooo	-9.39746
▁navina	-9.39785
ppatutta	-9.39791
ullil	-9.39817
▁teru	-9.39881
▁ttaann	-9.39889
nnutaiya	-9.39924
▁bhaya	-9.39991
amhm	-9.40046
▁pppaaarrriii	-9.40047
hj	-9.40075
▁elakk	-9.40103
▁pppaaarrroo	-9.40141
yyaak	-9.40144
▁hhoo	-9.40171
vilakk	-9.40222
▁cempar	-9.4024
▁tiyaka	-9.40294
yyyaa	-9.4033
lji	-9.40363
▁mottar	-9.40454
▁mant	-9.40475
araca	-9.40531
▁adhikar	-9.40543
▁kannam	-9.40564
▁aappaa	-9.40597
▁cakravaka	-9.40598
nrnta	-9.40688
ppar	-9.40778
▁kkkaaannn	-9.40803
lllii	-9.40834
ilin	-9.40886
▁atima	-9.40895
gb	-9.40909
eh	-9.40946
bbb	-9.40948
vay	-9.40971
▁natattu	-9.41003
▁hpaav	-9.41047
raaamm	-9.41128
igala	-9.41132
llllaadtat	-9.41184
aaattttttiii	-9.41209
uunn	-9.41225
▁tulai	-9.41261
unu	-9.41268
▁kkaavvaa	-9.4129
▁jnana	-9.41328
▁pinpak	-9.41332
▁bc	-9.41408
▁talar	-9.41629
▁narca	-9.41683
rupa	-9.41728
▁kappalp	-9.41742
est	-9.4176
cciittrraam	-9.41763
amipa	-9.41797
alocane	-9.41808
▁varna	-9.41821
antustiy	-9.41838
apvpaa	-9.41861
▁kuripp	-9.41865
lalala	-9.41889
▁kkii	-9.41901
rrruuu	-9.41945
▁nanma	-9.41946
imka	-9.41969
▁tej	-9.41993
vut	-9.42001
▁dhan	-9.42029
ppup	-9.42069
camamattam	-9.42121
aanrnn	-9.42127
ijan	-9.42187
▁aham	-9.42189
▁vviissaa	-9.42229
nniivvaa	-9.42298
▁irump	-9.42301
▁puna	-9.42303
gaanl	-9.42333
▁etirpp	-9.42361
caai	-9.42375
▁kunca	-9.42474
dei	-9.42521
abhas	-9.42567
rta	-9.42589
iyyaa	-9.42636
madi	-9.42644
hraan	-9.42649
▁elump	-9.4265
mul	-9.42665
▁tiru	-9.42681
avagu	-9.42713
▁tolv	-9.42718
▁narpat	-9.42797
hay	-9.42888
▁mmmuuulllllluu	-9.42956
karar	-9.43131
klr	-9.43197
▁kattup	-9.43197
▁eli	-9.43269
▁katikka	-9.43301
▁valima	-9.43327
▁vanam	-9.43362
▁emar	-9.43388
▁amma	-9.43543
ahma	-9.43557
ikari	-9.43576
yar	-9.43652
nme	-9.4368
▁kanta	-9.43685
ankocama	-9.43801
▁sssiii	-9.43804
ddaaa	-9.43842
▁kalutai	-9.43902
▁la	-9.44009
daam	-9.44131
▁he	-9.44157
uukkkk	-9.44158
▁vatakk	-9.44161
idana	-9.4421
annaam	-9.44313
atr	-9.4432
oott	-9.44389
kaci	-9.445
talaiy	-9.44532
nja	-9.44641
varam	-9.44677
▁min	-9.44687
apphh	-9.44715
ncira	-9.44722
ttrrii	-9.45065
narra	-9.45089
▁rroo	-9.45089
▁pirant	-9.45107
▁ph	-9.45117
▁vveett	-9.45301
▁carakk	-9.45326
▁tavala	-9.45346
nanam	-9.45369
pol	-9.45433
calak	-9.45454
▁dddiii	-9.45479
ccai	-9.45489
▁ariy	-9.45492
▁tamp	-9.4561
ikkai	-9.45611
▁cikki	-9.45619
kmaa	-9.45626
▁niya	-9.45639
ytaa	-9.45681
naiy	-9.45703
▁ara	-9.45799
praya	-9.45856
ktare	-9.45863
▁apin	-9.45927
▁akara	-9.45936
ugu	-9.45937
ale	-9.4605
dddaaamm	-9.46141
bboott	-9.46157
▁valna	-9.46256
dddaa	-9.46276
nnns	-9.46313
psar	-9.46331
bna	-9.46376
aaygi	-9.46384
▁vatakai	-9.46391
▁alop	-9.46393
▁ddd	-9.46473
ayykaaap	-9.46475
▁karun	-9.46606
dara	-9.46689
arli	-9.46726
▁nnaarr	-9.46735
▁ssaammaan	-9.4684
▁ep	-9.46855
icaptam	-9.46869
▁vella	-9.46877
▁ottikk	-9.46948
▁ayu	-9.47015
▁unma	-9.47105
▁nannay	-9.47133
nnnuuukkkuuullla	-9.47145
▁kanc	-9.4717
avv	-9.47223
aul	-9.47246
▁cuk	-9.4728
tiya	-9.47306
assatsr	-9.47366
▁mata	-9.47388
kkiya	-9.47389
ikki	-9.47422
▁pppiii	-9.47466
atte	-9.47555
nnaa	-9.47561
▁niru	-9.47587
▁arp	-9.47593
▁nnaall	-9.4767
▁valuv	-9.47728
kkaam	-9.47756
arjana	-9.4784
trer	-9.47896
kaa	-9.47951
pett	-9.48036
▁gar	-9.48195
usv	-9.48211
▁cula	-9.48386
▁yyuurr	-9.48515
mnaat	-9.48569
▁akro	-9.48607
galavada	-9.48627
nya	-9.48637
daaam	-9.48749
▁rraahhaassyyaam	-9.4884
tane	-9.4888
▁om	-9.48883
nj	-9.48932
▁ppooll	-9.48963
▁tot	-9.48988
▁ved	-9.49216
▁vit	-9.49302
▁nikku	-9.49326
▁hel	-9.49332
rlr	-9.49393
▁ppaanni	-9.49488
ppuutt	-9.49504
▁vvaadd	-9.49512
tthaa	-9.49526
antirika	-9.49558
akkraat	-9.49594
iikkaavmaad	-9.49697
▁paru	-9.49705
vaar	-9.49737
▁nik	-9.49746
▁vell	-9.49756
▁kettava	-9.49767
▁vilakk	-9.49821
kaas	-9.49835
uis	-9.49846
pte	-9.49851
astik	-9.49907
palu	-9.49977
▁ag	-9.50035
▁kakam	-9.50155
igina	-9.50159
iinngg	-9.50204
aadmmaaa	-9.50207
talayana	-9.50255
▁ddhhaa	-9.50268
ege	-9.50313
▁kalankama	-9.50322
▁natapp	-9.50512
ppolu	-9.5053
gagaamm	-9.50576
▁oo	-9.50603
▁ketti	-9.5063
aadtii	-9.50658
▁ccaannddaa	-9.50747
esss	-9.5083
▁pera	-9.50848
etukku	-9.50871
yyaass	-9.50877
nat	-9.50887
rati	-9.50898
ynya	-9.50925
▁natti	-9.50993
hhhaaasssyyyaaa	-9.51042
▁ppphhh	-9.51073
▁uru	-9.51091
avi	-9.51273
turi	-9.51294
rs	-9.51306
ppaadd	-9.51414
itam	-9.51486
▁tamarai	-9.51567
▁curukka	-9.51576
uyaramana	-9.516
papna	-9.51645
▁vvvaaarrrn	-9.51676
▁lll	-9.51679
eruppu	-9.51705
▁ppprrr	-9.51734
htaat	-9.51762
hhaadd	-9.51774
ayvii	-9.51794
▁mott	-9.51853
▁kaval	-9.5186
▁eru	-9.51887
▁saman	-9.51955
▁null	-9.51994
aham	-9.52018
▁piran	-9.52024
▁alankarikk	-9.52162
▁ee	-9.52202
▁rosam	-9.52236
▁pinna	-9.52238
phala	-9.52307
uuusssttta	-9.52374
pue	-9.5239
aaarrrtttiti	-9.52421
▁vica	-9.52436
gaah	-9.52436
▁kiram	-9.52556
asb	-9.52594
meiylillaltatdaa	-9.52678
▁kilakk	-9.5273
▁ke	-9.52736
us	-9.52751
yai	-9.52783
▁munpak	-9.52788
tdah	-9.52901
▁ppuulli	-9.52937
laaam	-9.53016
▁sariya	-9.53042
▁aadt	-9.53075
rraavvaam	-9.53077
tattu	-9.53104
etutt	-9.53173
oj	-9.53187
▁kiriy	-9.53294
angu	-9.53325
gkg	-9.53374
rrtii	-9.53436
nmaa	-9.53486
rokk	-9.53537
▁naval	-9.53685
riag	-9.53772
akkal	-9.53785
arn	-9.53805
ucey	-9.53837
▁turu	-9.53846
▁katta	-9.53872
naanmam	-9.53919
yiaan	-9.53966
▁bbhhaa	-9.54004
sanam	-9.54008
tttuuurrr	-9.54018
▁hhaajj	-9.54032
▁nne	-9.54073
ttaakkaam	-9.54141
aadnit	-9.54248
kkakr	-9.54254
nne	-9.54286
▁tttaaalll	-9.54303
rrar	-9.54383
bth	-9.54428
tj	-9.54491
kha	-9.54544
ipam	-9.54552
▁gkaa	-9.54563
sssiii	-9.54659
haaid	-9.5476
psa	-9.54821
inja	-9.5487
▁marana	-9.54946
gil	-9.54955
iiss	-9.54985
aaannntttaaa	-9.54994
▁ter	-9.55005
uppan	-9.55023
lva	-9.55124
thah	-9.55157
nima	-9.55359
aavvaarr	-9.55364
avavavanan	-9.55485
▁akalam	-9.5549
td	-9.55492
bhi	-9.55511
▁ami	-9.55557
yb	-9.55618
▁vvviiidddhhhaaa	-9.55654
▁aavvii	-9.55673
▁pppaaattthhhaaa	-9.55707
aisva	-9.55931
rja	-9.55941
llata	-9.55942
haal	-9.55982
rram	-9.56
pirakac	-9.56084
tan	-9.5621
aaalllaaa	-9.56268
iccam	-9.56422
▁lat	-9.56454
iinln	-9.56456
raca	-9.5646
jpa	-9.56492
nnii	-9.56591
uurraanna	-9.56606
▁nai	-9.56788
ph	-9.56822
▁capa	-9.56829
▁tram	-9.56877
▁ban	-9.56934
▁jjuu	-9.56935
▁ha	-9.57003
▁kait	-9.57068
mca	-9.57154
▁kavalai	-9.57229
▁lo	-9.5723
paks	-9.57247
▁tajiki	-9.57258
tiyar	-9.57326
ualnl	-9.57376
▁vetta	-9.57408
pet	-9.57525
kaka	-9.5763
tea	-9.5765
▁irakku	-9.57747
▁curr	-9.57775
▁kut	-9.57904
▁ggrraamma	-9.57961
tuta	-9.58005
ppphhh	-9.58088
▁tallat	-9.58107
akaca	-9.58181
▁aniti	-9.5821
▁rrreeedddiiiyyy	-9.58322
▁vma	-9.58389
▁yama	-9.58509
cati	-9.58598
▁me	-9.58659
daran	-9.58696
ppapa	-9.58714
ccinna	-9.58724
daa	-9.58812
aparam	-9.58864
tvi	-9.58875
rrreee	-9.58937
rayi	-9.58961
▁kon	-9.59012
ui	-9.59093
▁lllaaa	-9.59119
▁ru	-9.59143
▁un	-9.59154
ankitam	-9.59292
▁cirra	-9.59374
▁pand	-9.5943
ntaiyulla	-9.59448
akka	-9.59463
nca	-9.59469
stat	-9.5948
▁turkmenistani	-9.59559
mo	-9.59641
▁jam	-9.59687
▁viparitama	-9.59845
▁putti	-9.59854
▁niyayama	-9.59944
car	-9.5999
raa	-9.60072
▁mell	-9.60102
▁erin	-9.60156
aaammmiiinnn	-9.60171
▁param	-9.60177
▁katan	-9.60301
sva	-9.60362
idhi	-9.60478
rrupp	-9.6048
aoallliii	-9.60547
amam	-9.60555
▁cand	-9.60596
ngda	-9.60659
jiyam	-9.6076
pirata	-9.6082
siiimmmeaennntrt	-9.60828
parama	-9.60839
asdt	-9.60846
aaayyyaaannn	-9.60938
snad	-9.60965
▁kalyana	-9.61015
raj	-9.61033
▁tairiyam	-9.61128
uru	-9.61204
ukla	-9.6126
aalm	-9.61272
rrao	-9.61328
saalm	-9.61445
tatta	-9.61479
eky	-9.6151
▁som	-9.61609
nr	-9.61652
jalla	-9.61806
▁patipp	-9.61832
▁ay	-9.61908
▁pc	-9.62042
liyam	-9.62074
▁hpaadtiinnaa	-9.62164
aarn	-9.62169
▁ggaa	-9.62193
▁mmoo	-9.62306
ayir	-9.62381
rv	-9.62398
rde	-9.62465
iayma	-9.62589
beri	-9.62611
saayra	-9.62656
▁ant	-9.62832
onn	-9.62957
aitrajan	-9.63079
uran	-9.63121
▁aannaannddaap	-9.63197
ikku	-9.63336
tiri	-9.63468
tra	-9.63795
kc	-9.63843
au	-9.63853
▁totu	-9.63982
▁tutai	-9.64066
vviii	-9.64287
▁cinka	-9.64356
yin	-9.64431
ariramillat	-9.6454
kkani	-9.6473
tteee	-9.64916
ter	-9.65057
nnnaaa	-9.65125
undar	-9.6521
▁purana	-9.65214
▁kira	-9.65358
▁raniy	-9.65533
▁patina	-9.65549
itri	-9.65615
ampatti	-9.65616
hasa	-9.65643
▁jal	-9.65685
rriiyyaa	-9.65706
asam	-9.65737
▁iranta	-9.6576
▁cariy	-9.65805
mmmaaa	-9.65928
khya	-9.65964
iiynaa	-9.65998
aaarrraaamm	-9.66007
uudd	-9.6605
ttaannttrraa	-9.66188
ttaannd	-9.66206
mda	-9.66254
ntat	-9.66282
ssiyyaa	-9.66327
njira	-9.66421
agaamm	-9.66451
aivatt	-9.66455
cccaaarrr	-9.66473
▁co	-9.66486
▁civa	-9.66571
uvu	-9.666
▁bbaall	-9.66643
▁rrraaakkktttaaa	-9.66738
eli	-9.66772
aarma	-9.66811
▁mmaass	-9.66906
uta	-9.66961
aakkttii	-9.67027
eljiya	-9.67035
▁sssaaarr	-9.67219
chi	-9.67284
kisi	-9.67511
▁patti	-9.6778
ytaaa	-9.67817
▁gil	-9.67937
reyi	-9.67947
irakac	-9.67954
atyaa	-9.67984
pphhll	-9.67992
▁nnniiillliaa	-9.68072
karant	-9.68228
atika	-9.6832
▁aluk	-9.68523
▁varn	-9.68664
tyia	-9.68698
aatvtaa	-9.68799
sea	-9.68802
▁palu	-9.68971
citt	-9.69112
▁cantosama	-9.69174
raam	-9.69462
aaddhhaarr	-9.69555
aauunn	-9.6961
gkii	-9.69699
lllliillllaadtat	-9.69753
vil	-9.69804
▁vank	-9.69818
▁korkk	-9.70036
lavi	-9.70258
issv	-9.70266
▁kalat	-9.70289
lial	-9.70342
ib	-9.70413
▁cay	-9.70425
▁kaliya	-9.7058
ayattir	-9.70605
ain	-9.70654
vmaadian	-9.70885
aattmmaakkaavada	-9.70992
ddii	-9.71006
aciyam	-9.71044
tet	-9.71079
rammi	-9.71251
tata	-9.71308
lin	-9.7133
yaaappp	-9.71366
▁avasyam	-9.71383
▁rant	-9.71416
▁tura	-9.71431
vpa	-9.71432
tyaa	-9.71448
▁kaykka	-9.71455
▁piriyam	-9.71458
kna	-9.71551
unl	-9.71594
jn	-9.71598
ppo	-9.71649
tkaakk	-9.7167
▁nnaaggaarra	-9.71685
▁mp	-9.71756
▁munnar	-9.71763
▁kattam	-9.71815
rikka	-9.72029
▁kaluk	-9.72117
cara	-9.72306
enya	-9.7259
kkay	-9.72659
ukka	-9.72714
cnt	-9.728
aarnna	-9.72999
▁valat	-9.73095
eaam	-9.73194
kkata	-9.73268
muu	-9.73272
cae	-9.73369
▁past	-9.73392
yea	-9.73482
▁jjaanna	-9.735
▁ceyyat	-9.7352
bbaa	-9.73597
vgaa	-9.73722
rava	-9.73756
▁grama	-9.73813
aamv	-9.73924
annut	-9.7406
haan	-9.74063
iiinnnggg	-9.74101
yoga	-9.74173
accaram	-9.74192
dsi	-9.74269
th	-9.74374
ranam	-9.74385
sos	-9.74413
▁nav	-9.74447
uullu	-9.74448
iis	-9.74608
naan	-9.74707
sikku	-9.74748
▁pil	-9.74763
lag	-9.74776
aanneam	-9.75081
aran	-9.75096
itiyilla	-9.75119
ankulal	-9.75136
▁alankarama	-9.7544
llllaa	-9.75501
▁natp	-9.75686
aallaayyaa	-9.7578
knaa	-9.75809
pptaa	-9.75891
mini	-9.75978
▁main	-9.76132
err	-9.76185
vyaa	-9.76285
▁sak	-9.76344
alaikkan	-9.76393
▁kanam	-9.76511
kaatn	-9.76544
ekt	-9.76594
▁ya	-9.76764
▁li	-9.76811
▁avasya	-9.76954
vrar	-9.7704
▁nnaaggaarraa	-9.77058
roru	-9.77113
aum	-9.77498
or	-9.77526
▁patine	-9.77599
▁ddhha	-9.77905
▁vann	-9.78033
dta	-9.78165
▁kotu	-9.78194
enar	-9.78199
ttttii	-9.78229
irunt	-9.78229
kutt	-9.78312
viv	-9.78364
alukka	-9.78442
yaak	-9.78462
rku	-9.78554
pppuu	-9.78587
▁kkrr	-9.78612
▁tutakka	-9.78618
▁pars	-9.78674
ep	-9.78837
astam	-9.78852
iyaya	-9.78902
▁kaiy	-9.79055
▁pla	-9.79179
tankal	-9.79245
artar	-9.79321
ikk	-9.79393
▁camam	-9.79394
ruppu	-9.79706
▁pus	-9.79741
▁rraan	-9.79789
cpi	-9.7989
ae	-9.7993
tittal	-9.79946
nilam	-9.79985
pt	-9.80064
▁sssaaammmaaa	-9.80181
rpp	-9.80555
▁nnniiilllia	-9.80574
ukkil	-9.80637
arnu	-9.80752
ccatta	-9.80764
ayil	-9.80789
mmpp	-9.80963
▁cantam	-9.80994
▁per	-9.81017
paa	-9.81178
▁mala	-9.81336
vav	-9.81386
iiivvvaaa	-9.81395
▁aahh	-9.81431
▁ssvvaa	-9.81653
▁curru	-9.81678
aammbbhhaa	-9.81682
ndada	-9.81682
vvaanna	-9.81685
rraaakkktttaaasm	-9.82075
ukran	-9.82141
utu	-9.82256
rtar	-9.82338
▁kuruk	-9.82461
daahr	-9.82602
iravu	-9.82637
pattu	-9.82649
aall	-9.82681
▁kru	-9.8296
piuk	-9.82976
rema	-9.83023
cuc	-9.83236
upatti	-9.83285
▁manca	-9.83402
anantnt	-9.8346
kkula	-9.83546
bbhhaavvaa	-9.83566
▁bali	-9.83584
▁nak	-9.83866
lllaaarrr	-9.83998
▁marr	-9.84073
▁mal	-9.84179
ttks	-9.84346
sssttt	-9.84486
uunj	-9.84598
uttt	-9.84652
aid	-9.84713
vvee	-9.84737
iyar	-9.84816
▁acca	-9.84824
▁vvaaii	-9.84833
ciriya	-9.84898
dala	-9.85009
bid	-9.85128
▁mmuur	-9.85272
iaay	-9.85312
tvtaa	-9.85416
purva	-9.856
ncu	-9.85694
aj	-9.85709
nh	-9.85736
▁mmaarrii	-9.858
cakkaram	-9.85865
gara	-9.86237
aayyaann	-9.86281
▁aannaannddaa	-9.86339
ecam	-9.86412
mviillllaatdtaa	-9.86605
aarrii	-9.86806
kkatta	-9.86806
▁ulu	-9.86882
▁patin	-9.86957
▁pakk	-9.86957
aramu	-9.87197
mari	-9.87229
kade	-9.87327
▁pora	-9.87336
ippi	-9.87722
irakaci	-9.87807
▁vet	-9.87812
▁llliii	-9.87839
tamara	-9.87882
hnai	-9.87884
ua	-9.87974
vy	-9.88037
ino	-9.88052
ppan	-9.88066
its	-9.88074
▁tya	-9.881
aaannndddaaamm	-9.88139
arbaijani	-9.88179
ttika	-9.88204
ila	-9.88367
kh	-9.88385
aarrdd	-9.88393
num	-9.88481
yog	-9.88489
lii	-9.88708
▁upp	-9.88916
dmaa	-9.89026
▁pattup	-9.89175
usta	-9.8929
mat	-9.8931
tir	-9.89424
nnaaamm	-9.89444
▁tairiya	-9.89496
dtd	-9.89671
▁ciri	-9.89672
iillllaadtat	-9.89696
ratti	-9.89709
hhaarraann	-9.89826
maan	-9.89946
▁apatt	-9.89982
tirust	-9.9023
▁muna	-9.90352
kalyanatt	-9.90432
aatm	-9.9047
tiku	-9.90591
tamp	-9.90766
upattira	-9.90849
▁turkmenistan	-9.91038
uurpp	-9.91252
▁kaykkat	-9.91446
oca	-9.91454
asna	-9.91513
▁be	-9.91558
dtaa	-9.91701
saaam	-9.91767
▁ceyya	-9.92042
iiyyaad	-9.92145
aannd	-9.92254
▁itaivel	-9.92348
rraagg	-9.92373
ahr	-9.92456
ulai	-9.92478
nnnuu	-9.92543
▁tam	-9.92621
yaanta	-9.92627
▁tulu	-9.92724
▁rrreeeddd	-9.92729
▁kkkaoa	-9.92931
iyelu	-9.92951
ett	-9.92969
tirava	-9.93039
aryn	-9.93079
ttirar	-9.93338
▁bbhhaayyaam	-9.93527
aaannnkkkaaarrr	-9.93599
yyyaaasss	-9.93607
pana	-9.93671
rh	-9.9369
maim	-9.93712
vaa	-9.93723
iakma	-9.9381
ike	-9.9397
oag	-9.94135
cil	-9.9435
unn	-9.94352
aallk	-9.94358
▁tajik	-9.94366
▁aadd	-9.94407
aassttihkiak	-9.94427
alavada	-9.94591
ntaiy	-9.94642
▁pel	-9.94657
tarum	-9.94926
mmiinn	-9.94956
▁ggrraamm	-9.94989
utiya	-9.95168
kaca	-9.95174
ikka	-9.9524
jya	-9.95345
rtr	-9.95368
rrk	-9.95412
▁kanna	-9.95478
iyi	-9.95483
dsa	-9.95489
sssaaa	-9.95502
▁marat	-9.95715
atra	-9.95815
rrraaammmaaa	-9.9586
idu	-9.95915
▁umai	-9.9593
cccaaa	-9.96146
▁nintalkk	-9.96554
arab	-9.96671
akti	-9.96704
uga	-9.96722
▁nanra	-9.9673
▁vvvaiiir	-9.96756
▁tiki	-9.96866
kaaar	-9.96875
▁marata	-9.96922
▁ttiirr	-9.97095
iiiyyyaaammm	-9.97597
ayanam	-9.9768
▁kann	-9.97696
▁cata	-9.97961
okam	-9.9809
rraass	-9.98321
▁vataka	-9.98453
dia	-9.98577
▁vvaann	-9.9858
dddhhh	-9.98708
vavad	-9.98723
tukka	-9.98814
uurr	-9.98847
▁rak	-9.98914
jjaarraa	-9.99016
atma	-9.99142
uukl	-9.99202
▁sr	-9.99314
ndaa	-9.99416
tttiiu	-9.99436
ailv	-9.99492
▁ggg	-9.99531
tana	-9.99654
▁nniill	-9.99693
kati	-9.99786
atvam	-9.9979
iadm	-9.99875
aln	-10
aattaakkaam	-10.0014
rril	-10.0024
virotama	-10.003
▁mcaa	-10.0035
apam	-10.0037
vvaass	-10.0062
aga	-10.0063
▁kuli	-10.0066
▁kkoog	-10.0076
niil	-10.0085
uttam	-10.0088
iim	-10.0098
cuva	-10.01
ssssu	-10.0101
▁illa	-10.0107
tampi	-10.011
likkut	-10.0117
hra	-10.0119
yh	-10.0125
cciiirrr	-10.0134
mnma	-10.0136
iap	-10.0144
lal	-10.015
ccici	-10.0151
lot	-10.0187
raaaid	-10.0189
ket	-10.0218
aadtar	-10.0222
aannddaa	-10.0239
ull	-10.0239
ssa	-10.0247
aaav	-10.0257
mmaaan	-10.0258
sssaaannnttt	-10.0265
ankur	-10.0282
gggaaamm	-10.0309
arp	-10.0313
aalllaaamm	-10.0329
▁curukk	-10.0334
▁irupattina	-10.034
tttuuu	-10.0343
▁rosa	-10.0354
oann	-10.0362
dhhaa	-10.0373
ddaa	-10.0373
sssyyyaaavmmaa	-10.0374
thi	-10.0379
ooppaa	-10.039
cin	-10.039
ilam	-10.0394
▁tha	-10.0396
eal	-10.041
adyiaannata	-10.0432
▁arupat	-10.0442
iitrar	-10.0456
attavan	-10.0481
rrraaahhhaaa	-10.0491
caya	-10.0507
▁visala	-10.0517
▁ppuurr	-10.0522
naay	-10.0532
nnea	-10.0535
uli	-10.0541
▁kkaallaam	-10.0542
▁gram	-10.0558
citra	-10.0563
mmaarr	-10.0564
▁kanka	-10.0575
▁vvaay	-10.0579
ast	-10.0588
kkaannttaa	-10.0593
ipil	-10.0595
paam	-10.0598
▁veta	-10.0601
▁ran	-10.0603
vnaad	-10.0608
annn	-10.0613
▁mur	-10.0613
kriar	-10.0618
dtii	-10.0622
rrryyyaaa	-10.0623
yaaamm	-10.0639
lhaai	-10.064
uuv	-10.0642
▁ananta	-10.0647
▁aallaannkkaarr	-10.0648
mattam	-10.0656
latti	-10.0657
▁uupp	-10.066
intal	-10.0662
kaarruu	-10.0672
uuuddd	-10.0681
▁aaarrr	-10.0691
▁int	-10.0699
kalaman	-10.07
▁san	-10.071
skut	-10.0724
bra	-10.0727
tthhaa	-10.0729
sd	-10.0729
▁mmaag	-10.0733
iiinnnaaalll	-10.0737
saakm	-10.0737
mmmaaannna	-10.0741
▁rraahhaassyyaa	-10.0744
attot	-10.0768
ammhaa	-10.0772
ajh	-10.0773
gaamm	-10.0776
gyii	-10.0781
po	-10.0783
lav	-10.0788
rang	-10.0788
▁ppoo	-10.0788
dea	-10.0788
▁vic	-10.0794
vaaannnaa	-10.0822
untar	-10.0826
drraavvaa	-10.0849
uttar	-10.0858
▁vac	-10.087
kn	-10.0876
▁kona	-10.0883
raiya	-10.089
hada	-10.0918
sark	-10.0928
aartr	-10.0929
mitu	-10.094
nniikk	-10.0944
nltl	-10.0957
nma	-10.0964
niai	-10.0965
▁apana	-10.097
icca	-10.097
rasa	-10.0974
pdar	-10.0978
▁ssa	-10.098
▁iran	-10.0988
svi	-10.1
▁purapp	-10.1002
varai	-10.1013
adb	-10.1017
kkarr	-10.1024
net	-10.1037
asnaanm	-10.1037
addhhaam	-10.1041
▁canki	-10.1055
nilanira	-10.106
viillllaatdtaa	-10.106
aah	-10.1064
rrn	-10.1071
lavu	-10.1072
aaavd	-10.1083
atakam	-10.1103
yyya	-10.1105
attai	-10.1105
gma	-10.1115
kiia	-10.1121
ooorrr	-10.1124
nnc	-10.1132
iiiyyyaaa	-10.1136
uuulllaaa	-10.1147
culal	-10.116
lloo	-10.1164
atln	-10.1166
mmppaa	-10.1187
rin	-10.1194
▁ppaatt	-10.1203
avvvaaarrr	-10.1206
▁akr	-10.121
gra	-10.1211
arrti	-10.1215
▁karan	-10.1218
matan	-10.1221
vyaaa	-10.1222
nnttaan	-10.1222
▁ppaann	-10.1233
ayira	-10.1247
ivi	-10.1247
tinam	-10.1258
avmaadyaa	-10.1266
aim	-10.1307
aaiinnaa	-10.131
kali	-10.132
▁ppprrraaacc	-10.1326
▁sun	-10.1329
nnan	-10.1333
uc	-10.1345
vilan	-10.1351
ceyyap	-10.1351
ttth	-10.1365
sms	-10.1375
dsaa	-10.1376
rrrggg	-10.1391
uarrr	-10.1396
▁anta	-10.1414
▁api	-10.1422
pon	-10.1429
nea	-10.143
saaas	-10.1436
tre	-10.1457
marum	-10.1463
▁gra	-10.1467
▁orrumai	-10.1484
dm	-10.15
▁pppuuu	-10.1506
tiyillat	-10.1514
aannn	-10.152
iuppp	-10.1526
▁mc	-10.1536
▁kkaay	-10.154
▁patino	-10.1542
tukku	-10.1546
oorrii	-10.155
aiy	-10.1559
▁bbbooo	-10.1568
▁aaann	-10.1585
gina	-10.1588
▁taka	-10.1598
▁nnaarra	-10.16
▁vvaarraa	-10.1602
rc	-10.1612
▁vanci	-10.1637
ival	-10.165
▁pr	-10.1655
rayil	-10.1668
atho	-10.169
nug	-10.1691
aral	-10.1694
lliiss	-10.1695
▁tumpi	-10.1702
▁alam	-10.1712
ren	-10.1726
▁akan	-10.1735
▁tut	-10.1747
kara	-10.1765
ukuta	-10.1766
▁vili	-10.1771
aralu	-10.1776
uupp	-10.1806
opa	-10.181
rkri	-10.1831
ov	-10.1847
nko	-10.1852
rukk	-10.1853
▁mmmuuullllllu	-10.1858
dduu	-10.1868
▁aakka	-10.1876
iiinnnaaamm	-10.188
ymam	-10.1893
adi	-10.1897
▁eep	-10.1914
▁carivu	-10.1918
asn	-10.1919
dari	-10.1922
ropa	-10.1926
vaha	-10.1939
annaan	-10.1946
▁kkao	-10.1947
▁pprra	-10.1967
▁cariya	-10.1977
viinn	-10.1982
▁kalu	-10.1986
gr	-10.1987
iany	-10.2001
llee	-10.2002
aiyalam	-10.2003
rag	-10.2014
ayan	-10.2044
▁kkaann	-10.2063
vd	-10.2079
urin	-10.2079
▁velli	-10.2089
▁alocan	-10.2092
ddaamm	-10.2105
nnngggi	-10.2106
▁mati	-10.2106
▁kalanka	-10.2113
paun	-10.2119
tciy	-10.2139
▁sk	-10.2147
▁ina	-10.2148
▁tait	-10.2164
jjaa	-10.2174
ssmt	-10.2198
iittaann	-10.22
ikr	-10.22
▁ttt	-10.2209
iikk	-10.2213
pphaat	-10.2214
kcd	-10.2216
ikkutu	-10.222
min	-10.2228
laku	-10.2234
annnaaannndddaaa	-10.2239
sak	-10.2249
aaymam	-10.225
nanara	-10.225
tanai	-10.2251
aasd	-10.2256
▁hpaa	-10.2273
taiyulla	-10.2276
eann	-10.2283
rdddhdhaha	-10.2287
iiittt	-10.2289
pr	-10.2294
▁kopa	-10.2314
aayy	-10.2319
▁ho	-10.2324
iiirttr	-10.2324
iyinda	-10.2329
viya	-10.2329
vir	-10.2344
ln	-10.2353
▁vatak	-10.2362
yyaay	-10.2363
ista	-10.2371
▁hppa	-10.2383
▁pork	-10.2385
▁akas	-10.2389
cciittrraa	-10.2396
hrraa	-10.2406
millat	-10.2421
aslaa	-10.2435
aadsaa	-10.2439
aluku	-10.2451
jal	-10.2456
adni	-10.2466
keyil	-10.2468
▁eluta	-10.2477
▁vay	-10.2487
iaatm	-10.2488
▁pppaaarrr	-10.2488
uuu	-10.249
ryaaa	-10.249
▁pava	-10.249
eikr	-10.2494
ksana	-10.2498
ayma	-10.2507
amp	-10.251
aaannndddaaam	-10.2512
▁arampa	-10.2518
llaamm	-10.2533
ranr	-10.2534
aaam	-10.2536
▁adhika	-10.254
toi	-10.2551
mayi	-10.2559
▁rreedd	-10.2561
uurraann	-10.2562
galu	-10.2573
nnngkg	-10.2573
iag	-10.2587
▁nanna	-10.2588
nit	-10.2602
▁kava	-10.2612
▁tek	-10.2614
vitai	-10.2618
allaam	-10.2619
nnoo	-10.2635
▁kkkooo	-10.2639
taahm	-10.2646
rab	-10.2653
aknak	-10.2678
inlla	-10.2682
▁natta	-10.2683
▁bbii	-10.2685
enr	-10.2687
aanrn	-10.2688
lve	-10.2692
viitt	-10.2702
ccaa	-10.2705
nnnyyyaaa	-10.2712
vann	-10.2717
nncs	-10.2719
bbm	-10.272
yakala	-10.2732
▁pinn	-10.2737
lllaaammm	-10.2738
uull	-10.2742
ccciiitttrrraaa	-10.2763
▁kkaatttt	-10.2766
tha	-10.2785
sts	-10.2789
▁mauna	-10.2791
▁kutiraikk	-10.28
rasar	-10.2811
jnanam	-10.2812
mhaay	-10.2828
▁nas	-10.2829
▁mukki	-10.2841
gggiii	-10.285
ankatam	-10.2851
▁mmaatt	-10.2855
dian	-10.2866
▁top	-10.2879
karan	-10.2879
utt	-10.2879
ji	-10.2879
lnil	-10.2887
▁ttaall	-10.2889
lail	-10.2897
caman	-10.2899
aabbb	-10.2911
accin	-10.2927
ddhhii	-10.2934
para	-10.2946
vtaat	-10.2948
ccci	-10.2954
▁mmo	-10.2956
aanngka	-10.2958
taannttrraa	-10.2961
pak	-10.2971
▁vart	-10.2979
jiii	-10.298
▁hho	-10.2985
andah	-10.299
khr	-10.2992
mmaaannnaaam	-10.2997
uujc	-10.2998
aklaal	-10.3001
mvaaam	-10.3011
rraannjjaa	-10.3015
hmh	-10.302
ampa	-10.3021
▁anpu	-10.3025
▁elak	-10.3028
▁namp	-10.303
kolla	-10.303
oooggg	-10.303
▁sssaaammma	-10.3032
valip	-10.3032
pia	-10.3034
rrraaannn	-10.3037
mmaann	-10.3039
sssaaapppaaa	-10.304
apkas	-10.3044
▁sssaa	-10.3046
▁llaa	-10.3048
▁bbbhhhaaa	-10.3053
kulal	-10.3061
▁jjjaaannna	-10.3061
yiay	-10.3066
anaya	-10.3067
viy	-10.3067
▁aaannnuu	-10.3071
▁uyaram	-10.3075
aoalllii	-10.3082
▁viyap	-10.3082
▁sikk	-10.3082
▁mutuk	-10.3088
eruma	-10.3089
kattu	-10.3098
yuu	-10.3098
▁nneerra	-10.3105
balu	-10.311
▁aaannnttt	-10.3118
ppaattaam	-10.3121
lb	-10.3123
ddaarr	-10.3128
rrhii	-10.3139
kaallaamm	-10.314
kaluta	-10.3141
adhikar	-10.317
ramu	-10.3172
aavvaar	-10.3173
uccu	-10.3173
ahim	-10.3176
vra	-10.3184
bbbaaalllaaa	-10.3189
bvaan	-10.319
rvr	-10.3198
ngala	-10.3202
uhd	-10.3205
iiyyyaaammm	-10.3206
jjjaaannn	-10.3207
kannir	-10.3212
hhaarr	-10.3219
kkkuuuttt	-10.3219
▁jav	-10.322
bhumi	-10.3222
iibba	-10.3223
dduurr	-10.3228
kitam	-10.3229
rraavvaadd	-10.3234
tmaam	-10.324
vyyyaaapppaaarrr	-10.3242
kappat	-10.3243
rrraaamm	-10.3248
yyy	-10.3253
kuva	-10.3254
▁tivra	-10.3255
irantu	-10.3257
ray	-10.3258
▁kkkrrr	-10.3258
ppaaapppaaa	-10.3259
thaha	-10.327
maallaa	-10.3272
jjjaaa	-10.3273
kutira	-10.3273
vanku	-10.3274
uodtdiii	-10.3274
jjuu	-10.3275
yyaannttrra	-10.3276
uvvaa	-10.328
bbbaaa	-10.3285
nniiss	-10.3285
aaannngkga	-10.3291
lvlaa	-10.3291
spuu	-10.3293
tnd	-10.3293
▁si	-10.3293
bbaallaa	-10.3298
▁nnn	-10.3298
mmb	-10.3305
ppeenn	-10.331
ppprrraaayyyaaa	-10.3311
pattonpat	-10.3318
ttuva	-10.3319
hhhaaarrraaannn	-10.3319
ydaa	-10.3321
mbab	-10.3322
dddiii	-10.3324
bbaall	-10.3326
uyarnta	-10.3328
oonn	-10.3334
aiva	-10.3335
▁sssaaann	-10.3336
uurraan	-10.3336
▁pppaaakk	-10.3338
kariya	-10.3338
curru	-10.3351
oog	-10.3351
yia	-10.3353
sats	-10.3358
potta	-10.3358
ggrraamm	-10.3358
eetk	-10.3358
paparar	-10.3359
tatananin	-10.3367
ukl	-10.3369
▁ppaatttt	-10.3374
▁ppuull	-10.3379
aaabbbb	-10.3379
kkrru	-10.3387
ccc	-10.3388
▁paar	-10.3391
ddahh	-10.3395
aaarrriii	-10.3396
amakona	-10.3399
lllaaavvvaaa	-10.3401
ttaarrkkak	-10.3402
▁pulak	-10.3403
bbii	-10.3404
rrrccc	-10.3408
dih	-10.3408
▁onpat	-10.3413
aavmu	-10.3414
kkss	-10.3414
esa	-10.3422
aamnmaaa	-10.3422
ceriya	-10.3422
iinnnaaalll	-10.3422
cciitt	-10.3423
aprai	-10.3424
avdaid	-10.3429
naaamm	-10.3444
uutttaaak	-10.3444
▁mmmaaarr	-10.3445
yiillllaadtat	-10.3445
kalutai	-10.3446
tttatt	-10.3449
▁uuuppp	-10.3452
iiimmm	-10.3454
aaatttmmmaaa	-10.3454
▁bha	-10.3455
ghha	-10.3456
▁vviivv	-10.3457
ttttttaaa	-10.3458
kkaarraann	-10.3459
iennii	-10.3466
caaatttuuur	-10.3467
▁bbee	-10.3468
dddhdh	-10.3469
▁ott	-10.3469
▁hpaadtii	-10.3471
▁kanakk	-10.3471
▁ssnneehh	-10.3475
vara	-10.3476
caem	-10.3476
aatthhaanna	-10.3479
bnh	-10.3479
vvaaddaam	-10.3483
imai	-10.3486
vilum	-10.3486
bbbrrra	-10.3489
▁nniir	-10.3493
▁ssiimm	-10.3497
eeeggg	-10.3497
uyar	-10.3498
▁irup	-10.35
ccciiittt	-10.3502
bbaan	-10.3504
dyiaan	-10.3506
kkaal	-10.3508
▁bbboo	-10.3509
hhhiiinnnaaam	-10.3515
rraanndd	-10.3516
aaasssaaabbbhhh	-10.3516
aiyyu	-10.3518
▁pprraakkaass	-10.3519
▁ssaammauj	-10.3519
uurp	-10.3523
rrraaavvvaaahh	-10.3525
rrrooapp	-10.3529
laadtatnata	-10.353
atnain	-10.353
▁rrraaajjja	-10.3531
mvtaa	-10.3531
yay	-10.3533
aaarrraaannn	-10.3536
ccaarraan	-10.3536
rruup	-10.3536
apla	-10.3536
kkaavv	-10.3537
iivvaas	-10.3537
veru	-10.354
aptar	-10.3542
gul	-10.3542
ddahava	-10.3544
aaattthhhaaan	-10.3545
ajarba	-10.3545
iiijjjaaa	-10.3546
trtarararr	-10.3547
hhhaaasssy	-10.3548
nbk	-10.3548
maadian	-10.3548
llliaamm	-10.3548
uukkhh	-10.3548
maaadyiaann	-10.355
kkkhhhaaa	-10.355
paaayyy	-10.355
kkkhhhyyy	-10.355
rrraaajjjyyyaaa	-10.355
kkkrrraa	-10.355
hhaaayn	-10.355
oajjaann	-10.355
vksaaa	-10.355
ssaaannnkkk	-10.355
ssaann	-10.3551
menistani	-10.3551
pphhaaii	-10.3551
aajjnnaan	-10.3551
uuukkku	-10.3551
puaptatt	-10.3551
rrraaattti	-10.3551
llaannkkaa	-10.3553
vaamdaa	-10.3553
mmmbbbaaa	-10.3553
▁bvvaaanr	-10.3553
▁dduurraad	-10.3553
papanan	-10.3553
iiipppa	-10.3553
gaannii	-10.3553
laaimka	-10.3553
mmaaaddd	-10.3554
ppaakkss	-10.3554
dtiinnaa	-10.3554
vvveaa	-10.3554
ssstttuu	-10.3555
▁eccar	-10.3556
jjju	-10.3557
apanand	-10.3557
jjnnaann	-10.3557
mmmpppaaan	-10.3557
▁sssiiimmm	-10.3558
ssskkk	-10.3558
aakkaassaam	-10.3559
ttetl	-10.356
▁gggaaannn	-10.356
aassttih	-10.356
muraiyil	-10.3561
raaavv	-10.3561
khiai	-10.3561
bbhhrr	-10.3562
aavnag	-10.3563
aaavkka	-10.3563
baaalll	-10.3563
hhiittaa	-10.3563
aaavmmaaa	-10.3564
aappuurr	-10.3564
▁nnaasstti	-10.3565
rakanta	-10.3566
tttaaakkkaa	-10.3566
▁bvvaaa	-10.3567
veell	-10.3567
▁ggaarr	-10.3568
ucca	-10.3568
▁nniiyya	-10.3568
rrraaarm	-10.357
rpuap	-10.3573
naanme	-10.3574
nnniiiyyyaaa	-10.3574
hhhaaakk	-10.3575
ttytaa	-10.3575
iiillllllaaa	-10.3577
aahnnai	-10.3578
aathta	-10.3578
mkaay	-10.358
ddud	-10.3581
▁kkkaaarrr	-10.3582
yaaasssaaabbbhhh	-10.3584
▁aannaat	-10.3584
jjaall	-10.3585
imaiy	-10.3585
▁paca	-10.3586
asasasas	-10.3588
villad	-10.3589
iinnaall	-10.3589
atdai	-10.3591
▁vvviiivvv	-10.3592
▁dur	-10.3592
yyaavmaadyaa	-10.3592
aabba	-10.3593
aek	-10.3597
aammaayyaa	-10.3598
paaap	-10.3599
▁arivi	-10.3599
aatdtaa	-10.3599
haair	-10.3599
▁elupatti	-10.3601
nuukkuullaakmaar	-10.3601
riket	-10.3601
ntttaa	-10.3603
bbrra	-10.3604
etra	-10.3604
llaavmaadyaa	-10.3605
nnaavvaa	-10.3606
varamillat	-10.3608
ohg	-10.3608
ristu	-10.361
urtry	-10.3611
▁sssaaammmaaan	-10.3611
klaa	-10.3612
haaayy	-10.3616
alllia	-10.3618
rrraaakk	-10.3618
koot	-10.3619
adar	-10.362
▁atikama	-10.362
sjii	-10.3623
eeennnnn	-10.3623
gkaan	-10.3624
ihki	-10.3633
saarri	-10.3637
▁rajapar	-10.3638
oaj	-10.3638
ssttu	-10.3642
▁nnee	-10.3642
▁nnaatt	-10.3645
kpia	-10.3646
etmin	-10.3646
naalle	-10.3651
raavvaa	-10.3652
gyy	-10.3652
nnnnuu	-10.3652
▁munp	-10.3653
nannnu	-10.3656
▁mmaannoor	-10.366
laaap	-10.366
ddiiyyaa	-10.3661
satyaa	-10.3662
agada	-10.3663
iiyk	-10.3663
hpo	-10.3664
kkuutta	-10.3665
canaiy	-10.3665
bbo	-10.3666
aarrnnnaa	-10.3667
maamta	-10.3667
mauj	-10.3667
ppuulli	-10.3668
onh	-10.3669
itaitta	-10.3672
aaarrruu	-10.3672
yaallaa	-10.3675
▁hhhiii	-10.3675
▁toli	-10.3676
yyao	-10.3676
▁ssaanntto	-10.3678
▁bbeell	-10.368
aarmmi	-10.368
▁pprraatt	-10.3681
nntto	-10.3686
▁sm	-10.3686
ima	-10.3687
otot	-10.3687
giikkaarra	-10.3688
ulala	-10.3689
kkatt	-10.369
rrraaag	-10.369
agkk	-10.369
aamdaain	-10.3693
ooog	-10.3695
pus	-10.3699
rautt	-10.3701
▁gguu	-10.3701
rruupp	-10.3702
▁nilat	-10.3703
▁ggrr	-10.3703
tttrrra	-10.3705
tttaaak	-10.3705
mmssaa	-10.3707
heli	-10.3707
tks	-10.371
mmmo	-10.371
uukkuullaakmaar	-10.3711
oappp	-10.3711
▁kkaass	-10.3716
saallaa	-10.3717
▁kkaatth	-10.372
lnlya	-10.3721
ahava	-10.3722
lallaa	-10.3722
ahb	-10.3722
nmk	-10.3722
raraamm	-10.3728
osss	-10.373
tdari	-10.373
iaydaa	-10.3738
yyea	-10.3739
▁mmaannt	-10.374
ttatara	-10.3741
tinar	-10.3741
krami	-10.3742
rrrea	-10.3743
nhe	-10.3744
▁ppaarrii	-10.3749
kkakt	-10.375
mdaay	-10.3751
ttuurr	-10.3755
hhaat	-10.376
nttaa	-10.3764
riiill	-10.3765
admu	-10.3766
vo	-10.3768
aapmua	-10.3768
▁munne	-10.3769
jnnaan	-10.3774
aamvaa	-10.3777
rriill	-10.3781
aarrvvaa	-10.3784
maaall	-10.3785
nnnaaavvv	-10.3787
nnnnnuu	-10.379
iiyyaav	-10.3791
ggguuu	-10.3792
kkikk	-10.3792
dddaaannnaaamm	-10.3794
sssuu	-10.3796
usk	-10.3796
nintu	-10.38
yyaaatm	-10.38
adhikari	-10.3801
lill	-10.3801
▁kaluka	-10.3803
mkaan	-10.3805
▁rrre	-10.3812
enki	-10.3814
aaklla	-10.3815
daaann	-10.3815
cinna	-10.3817
hhea	-10.3819
▁elupat	-10.3821
uusstta	-10.3822
bat	-10.3824
anri	-10.3825
aitri	-10.3826
hoorraa	-10.3827
bbbaaarrru	-10.3829
▁penku	-10.383
arku	-10.3832
rkia	-10.3834
irrri	-10.3838
ummaatt	-10.3841
aannkkaam	-10.3844
kask	-10.3845
hhho	-10.3845
uyarama	-10.3848
odtdiii	-10.385
hhau	-10.3851
ysaa	-10.3851
ppaaamm	-10.3855
pumi	-10.3858
eennnn	-10.3859
oolli	-10.3861
aaattv	-10.3862
ssseae	-10.3865
ggo	-10.3865
▁jan	-10.3865
vvvaaasss	-10.3867
▁aaddhh	-10.3867
ltaam	-10.3868
aaabbba	-10.3869
▁ppaakk	-10.3869
nen	-10.3872
▁bbbaaalllaaa	-10.3876
addaarr	-10.3876
eees	-10.3877
▁pprraak	-10.3877
ryaat	-10.3877
rraad	-10.388
jju	-10.3881
bbhhaav	-10.3882
suunn	-10.3885
iibbaa	-10.3887
arddd	-10.3889
uunnaam	-10.3891
aakkak	-10.3891
▁vvaass	-10.3895
iirraass	-10.3897
cikka	-10.3901
puk	-10.3903
puul	-10.391
▁vva	-10.3916
ssaaannn	-10.3917
nnaarr	-10.392
mmaaat	-10.3921
atai	-10.3923
mmiinnu	-10.3924
▁kannir	-10.3925
nnnaamm	-10.3926
kampi	-10.3933
▁valu	-10.3935
nkala	-10.3938
▁asar	-10.3938
lllua	-10.394
▁kolla	-10.394
ppphh	-10.3942
dha	-10.3942
bbba	-10.3952
hini	-10.3952
arrrccc	-10.3952
▁vvo	-10.3953
jv	-10.3954
▁acar	-10.3959
yaaavmmaaadyiaan	-10.3961
iiikkkaaa	-10.3962
trtar	-10.3962
yyii	-10.3964
ell	-10.3966
lalul	-10.3971
avavana	-10.3973
rtrara	-10.3973
jaaamm	-10.3974
yamilla	-10.3975
ttt	-10.3976
▁vviivvaa	-10.3978
dvv	-10.3991
carp	-10.3992
▁ken	-10.3994
allii	-10.3995
kollai	-10.3996
▁nnniii	-10.3999
aaddd	-10.4005
kkksssaaa	-10.4007
asj	-10.4012
mruu	-10.4014
avel	-10.4016
▁palat	-10.4018
▁mantr	-10.4018
rkar	-10.4024
olib	-10.4026
je	-10.4027
uku	-10.4027
ngk	-10.403
aea	-10.4034
▁lai	-10.4039
ivara	-10.4042
mano	-10.4044
dvu	-10.4047
▁vvvai	-10.4048
yaay	-10.4048
ehh	-10.4052
atikk	-10.4054
▁tip	-10.4062
jr	-10.4065
kmr	-10.4066
jaaar	-10.4068
ndha	-10.4074
tttiiirrr	-10.4075
vvuuu	-10.4079
asus	-10.408
▁mah	-10.4082
▁anat	-10.409
iayy	-10.4091
srt	-10.4097
gggyyyaaa	-10.4102
stv	-10.4103
vaaat	-10.4107
iakk	-10.412
try	-10.412
jap	-10.4126
diii	-10.4128
kkii	-10.413
▁ccci	-10.4138
ruunn	-10.4139
amu	-10.4142
yyuu	-10.4156
hhhaaarrr	-10.4158
papara	-10.4161
gaaamm	-10.4172
▁muru	-10.4174
tuut	-10.4187
itayil	-10.4188
▁adh	-10.4195
ivala	-10.4197
▁kkaavva	-10.4199
aakl	-10.4203
maaat	-10.421
vvaan	-10.421
uny	-10.4211
llaiya	-10.4216
kasna	-10.4216
idyiay	-10.4219
ssaaa	-10.4223
sssaaabbb	-10.4233
vrau	-10.4234
laad	-10.4237
▁aaannnuuu	-10.4239
yaaatt	-10.4248
ivu	-10.4258
paarrraa	-10.426
urupayo	-10.4262
▁pppuu	-10.4262
cya	-10.4264
▁enk	-10.4271
ajal	-10.4274
hrr	-10.4278
▁aall	-10.4286
yind	-10.4292
ararr	-10.4293
rakkura	-10.4307
ttoo	-10.4314
nnncs	-10.4318
mnaa	-10.4324
lea	-10.4326
maaad	-10.4326
aldaa	-10.4328
▁nnne	-10.4329
gguurr	-10.4331
enniiyyaa	-10.4339
ivarana	-10.4342
rikkai	-10.4343
▁ora	-10.4344
ainta	-10.4345
nlya	-10.436
uuul	-10.4362
tiv	-10.4368
oogv	-10.4369
▁mca	-10.4371
▁ilai	-10.4371
jaup	-10.4371
patu	-10.4372
kaks	-10.4375
hdi	-10.4377
▁ou	-10.4377
uukku	-10.4386
elu	-10.4387
ulll	-10.4389
minra	-10.4391
dna	-10.4392
naic	-10.4394
▁rrraaammm	-10.4398
kaaas	-10.4398
iikt	-10.4401
puutti	-10.4401
▁ppaar	-10.4412
eai	-10.4414
uvaca	-10.4419
css	-10.4424
naaann	-10.4431
siin	-10.4433
nni	-10.4436
naadma	-10.4462
eka	-10.4464
▁cuva	-10.4478
▁tolil	-10.4487
kana	-10.4491
ynna	-10.4495
▁rre	-10.4504
vivi	-10.4514
yuk	-10.4524
utir	-10.4527
kuk	-10.4528
▁matta	-10.4529
nniill	-10.4532
araiv	-10.4532
nikal	-10.4538
agadan	-10.4538
llluuu	-10.4543
anku	-10.455
▁natana	-10.4551
▁kalati	-10.4554
yanam	-10.4563
adade	-10.4564
dkh	-10.4573
ty	-10.4583
ulci	-10.4585
luul	-10.46
annutaiya	-10.4604
rter	-10.4605
agala	-10.462
assm	-10.4621
agm	-10.4626
oll	-10.4629
puti	-10.4636
▁sskk	-10.4642
kkhaa	-10.4646
ykka	-10.4647
apa	-10.4653
tallu	-10.4657
akc	-10.4667
ppatutt	-10.4685
ukk	-10.4687
▁kkaal	-10.4689
atyaam	-10.4695
▁ig	-10.47
kuuu	-10.4706
nnnaaalll	-10.4708
ec	-10.4708
iirru	-10.4716
usti	-10.4719
▁nnaar	-10.4732
▁venka	-10.4734
▁iiss	-10.4736
ahm	-10.474
ssaaam	-10.4743
▁akram	-10.4753
utta	-10.4755
▁mmaan	-10.4774
iikkaa	-10.478
asmsa	-10.479
kavi	-10.4804
nniiyyaammaa	-10.4804
aub	-10.4807
gm	-10.4812
ikrka	-10.4816
ivela	-10.4817
tdtaa	-10.4826
mub	-10.4836
abb	-10.4846
ittar	-10.4849
dar	-10.4858
▁marra	-10.4859
▁tenk	-10.4863
ilum	-10.4864
itan	-10.4881
eey	-10.4882
ukiya	-10.4884
ttaaa	-10.4884
naiin	-10.489
haav	-10.4894
trii	-10.4906
aammaya	-10.492
iinne	-10.4924
dtai	-10.4931
gdaa	-10.4933
▁bel	-10.495
kakarar	-10.4951
eyu	-10.4951
nda	-10.4953
usssttt	-10.4956
▁men	-10.4963
krkaa	-10.4966
ennk	-10.4967
ellaiy	-10.4968
▁karu	-10.4973
▁ttaamm	-10.4977
agi	-10.4978
uarrra	-10.4978
▁cit	-10.4982
jc	-10.4985
uuarrr	-10.4986
pmua	-10.4993
eaa	-10.5001
oyy	-10.5004
▁irupat	-10.5012
gggrrr	-10.5018
rraav	-10.502
aaad	-10.5021
rpu	-10.5034
kalaval	-10.5043
paaar	-10.5044
trrri	-10.5054
▁cant	-10.5054
nirai	-10.5063
tn	-10.5063
▁nnaaggaa	-10.5066
ttiti	-10.5068
dddhdhaha	-10.5086
ravag	-10.5087
lura	-10.5092
nakara	-10.5102
immaa	-10.5123
hana	-10.5123
annaanma	-10.513
▁ett	-10.5131
aadyaa	-10.5135
itiyil	-10.5135
▁jna	-10.5147
naad	-10.5151
teka	-10.5156
ppee	-10.5159
▁vait	-10.5163
itnaa	-10.5175
avra	-10.5176
astu	-10.5215
usp	-10.5226
kakaam	-10.5236
sria	-10.5239
nnnaam	-10.5239
iijjaa	-10.524
kkvv	-10.5247
aavmiillllaa	-10.5263
ns	-10.527
ogt	-10.527
▁kkuutt	-10.5271
prr	-10.5279
iikkaarraa	-10.5282
psas	-10.5301
vvaalli	-10.5301
rattirk	-10.5301
aiv	-10.5302
lsaa	-10.5312
naya	-10.5368
rac	-10.5372
yava	-10.5378
▁maruta	-10.5428
▁tiya	-10.5434
ttaann	-10.5441
gkgaaa	-10.5445
vvaaddau	-10.5451
cen	-10.5452
veliyil	-10.5452
mmi	-10.5463
intan	-10.5473
▁ao	-10.5477
papra	-10.548
▁hpaall	-10.5481
lama	-10.5485
uttara	-10.55
onra	-10.5505
aaannn	-10.5535
acr	-10.5539
mpaun	-10.5542
krk	-10.5552
nnuk	-10.5554
stu	-10.5556
▁ln	-10.5558
▁karr	-10.5563
▁utt	-10.5566
ajarpa	-10.5583
hnn	-10.5584
pmam	-10.5599
▁kv	-10.5604
amaj	-10.5612
haaall	-10.5613
▁ccca	-10.5617
▁da	-10.5622
dddhhhaaarrraaa	-10.5628
▁kkkaaavvva	-10.5644
rii	-10.5658
▁ttta	-10.5677
avvvaaa	-10.5691
pira	-10.5708
vakan	-10.572
taiya	-10.5721
▁bbbhhhaaay	-10.5721
▁kkkar	-10.5728
eerra	-10.5731
arivi	-10.5734
puv	-10.5764
kuulla	-10.5778
ulc	-10.5784
ruva	-10.5788
▁kko	-10.5792
sssea	-10.5812
cp	-10.5817
aanni	-10.582
dri	-10.5836
hadi	-10.5839
ceyta	-10.5841
▁rraamm	-10.5849
▁pura	-10.5871
ahra	-10.5873
saam	-10.588
▁ccc	-10.5902
lkl	-10.5932
▁aag	-10.5933
tth	-10.5938
▁sspp	-10.5947
▁hu	-10.5962
▁alan	-10.5965
▁err	-10.5969
nnr	-10.5976
kda	-10.5999
arv	-10.6003
oorr	-10.601
uac	-10.6021
hae	-10.6051
aup	-10.6052
rt	-10.6056
hua	-10.6058
nul	-10.6061
ars	-10.6065
amb	-10.6072
taak	-10.6079
▁tuva	-10.6081
eriya	-10.6097
inant	-10.6098
nia	-10.6101
▁cantir	-10.6105
kaak	-10.6108
▁atai	-10.6111
aannng	-10.6121
od	-10.6129
uap	-10.6134
nve	-10.6144
▁pha	-10.615
ade	-10.6153
ggaga	-10.616
ltaah	-10.6161
ammmpppaaa	-10.6164
ikkal	-10.6166
nun	-10.6172
gho	-10.6182
pil	-10.6191
ppmrr	-10.62
istani	-10.6212
ema	-10.6218
kkek	-10.6219
rm	-10.6241
▁vellin	-10.6269
▁kam	-10.6271
ht	-10.6272
ilai	-10.6289
▁atu	-10.6294
ranta	-10.6295
aki	-10.6318
▁orm	-10.6319
▁pun	-10.6327
▁pita	-10.633
iks	-10.6333
uun	-10.6337
▁rraajjaa	-10.6351
ilata	-10.6357
kraa	-10.6376
saaalll	-10.6394
yaam	-10.6406
dddaaa	-10.641
mmaam	-10.6414
ou	-10.6424
iitc	-10.6429
iye	-10.644
muam	-10.6451
kkkaaavvv	-10.6459
agke	-10.6465
via	-10.6468
yaada	-10.6478
ooorrriii	-10.6493
aapmam	-10.6495
pprra	-10.6531
lllaaa	-10.6536
imn	-10.6541
▁cantosa	-10.6544
arsana	-10.655
aiyan	-10.6556
▁kasta	-10.6579
▁nin	-10.6589
adinda	-10.659
aannaan	-10.66
anc	-10.6608
atri	-10.6615
▁sant	-10.6623
sssu	-10.6654
uoj	-10.667
uratti	-10.6672
yae	-10.6676
tee	-10.6684
vett	-10.6684
aakkaam	-10.6687
▁av	-10.6694
nnaamm	-10.6707
ism	-10.6717
▁nana	-10.6738
taiv	-10.6741
rraaam	-10.6745
llala	-10.675
duh	-10.6755
arakku	-10.677
stik	-10.6784
rumaiy	-10.6785
ikkol	-10.6792
▁mmaar	-10.6793
koo	-10.6818
arrraaannn	-10.682
tvii	-10.6868
mc	-10.6878
njan	-10.6914
param	-10.6925
auam	-10.6941
▁part	-10.6943
aaalllaaayyyaaa	-10.6951
ettai	-10.6974
ulakam	-10.6978
nanaya	-10.698
diyilla	-10.6981
nnaan	-10.699
ppphhhaaa	-10.6996
laaamm	-10.6997
tgi	-10.7005
▁kalakk	-10.7013
▁sau	-10.7013
alpaka	-10.7081
inda	-10.7081
mulu	-10.7089
anlt	-10.709
ayul	-10.7096
▁ad	-10.7098
ukku	-10.7114
rp	-10.7129
irana	-10.7146
gggaaa	-10.715
aavvaalli	-10.719
arar	-10.7195
haaya	-10.7197
bai	-10.7202
lava	-10.7215
avm	-10.7215
uppatu	-10.7216
taim	-10.7222
▁kak	-10.7223
kil	-10.7234
▁mulan	-10.7237
ank	-10.724
iih	-10.7258
hppu	-10.7264
masi	-10.7268
vvaai	-10.7275
▁aca	-10.7279
lga	-10.7285
dddi	-10.7304
hala	-10.7308
dya	-10.7353
rima	-10.7356
aatt	-10.7361
attiy	-10.739
irati	-10.7405
▁dha	-10.7434
arva	-10.747
▁tatt	-10.7473
appmrr	-10.7492
tttiii	-10.7505
▁vat	-10.7537
haaam	-10.7539
arasam	-10.7545
aammppaa	-10.7556
nanay	-10.7557
tv	-10.7558
aaaiiinnnaaalll	-10.7571
aammppa	-10.7586
▁alai	-10.7601
natti	-10.7617
▁vepp	-10.7622
avy	-10.7623
uccal	-10.7624
kt	-10.7658
adda	-10.7659
▁alukka	-10.7673
iitr	-10.7675
▁nilak	-10.7695
gt	-10.7701
hut	-10.7734
rrraaammmaa	-10.7745
lavan	-10.7762
▁kara	-10.7763
yac	-10.7771
lata	-10.7774
▁cantama	-10.7785
atine	-10.7803
lllaaayyyaaa	-10.7808
isi	-10.7819
gum	-10.7824
isss	-10.7845
aalle	-10.785
yoka	-10.7877
rrae	-10.7879
oppukk	-10.789
▁ccaannddrraak	-10.7919
tayi	-10.7921
iyilla	-10.7941
odv	-10.7956
aassaam	-10.7958
aamka	-10.7982
▁pall	-10.7984
▁palavinama	-10.8002
▁kav	-10.8009
kio	-10.8023
vid	-10.8026
mun	-10.8051
oja	-10.8057
uh	-10.8078
ura	-10.809
aallii	-10.809
aakkkaaamm	-10.8144
dhad	-10.8165
▁comp	-10.8165
ddddhh	-10.8182
iah	-10.8192
ivk	-10.8209
akkatti	-10.8223
acam	-10.8237
orr	-10.8252
ikkaiy	-10.8297
hhaamm	-10.8308
mcai	-10.8312
rrrttth	-10.832
aykk	-10.8322
gii	-10.8332
▁aanna	-10.8334
aihr	-10.8375
lnla	-10.8398
ppuaap	-10.8403
pma	-10.8403
aih	-10.8416
annu	-10.8419
akkm	-10.8468
lul	-10.8471
rain	-10.8481
rarn	-10.8481
ppaa	-10.8503
vuu	-10.8506
▁niyaman	-10.854
nuka	-10.855
▁kota	-10.8555
▁ppaatth	-10.8595
pputt	-10.8602
nnai	-10.8604
▁manka	-10.8625
apm	-10.863
labh	-10.863
▁aaannntt	-10.8633
aamna	-10.8664
▁mmuukk	-10.8681
ityia	-10.8691
nana	-10.8693
raas	-10.8698
sssaa	-10.8738
▁vm	-10.8738
tav	-10.8751
nnggaa	-10.8765
yaaa	-10.8775
▁yyoo	-10.8785
▁nirai	-10.8797
▁veliy	-10.8894
ddhhaann	-10.8931
lh	-10.8963
amayi	-10.8967
aap	-10.897
ju	-10.8974
tiru	-10.9017
kasu	-10.9018
vui	-10.9033
▁kalava	-10.9036
najn	-10.9053
ittu	-10.9062
avma	-10.9071
aadanta	-10.9094
▁malaikka	-10.9098
kapar	-10.91
sh	-10.9134
▁amar	-10.9144
rl	-10.9149
vaamm	-10.9158
rnna	-10.9164
▁curra	-10.9165
kkkak	-10.9196
▁cci	-10.9217
teli	-10.9218
erre	-10.9246
jaa	-10.9262
▁iruk	-10.9265
hak	-10.9271
▁sn	-10.9312
▁ddaa	-10.9328
▁cakk	-10.933
▁nanr	-10.9342
uuurrr	-10.9347
tilu	-10.9358
ullu	-10.938
ilpil	-10.9387
llaabb	-10.9391
▁ver	-10.9402
kaan	-10.9417
alv	-10.9433
▁yyaa	-10.9438
nanku	-10.9441
km	-10.9452
rrr	-10.9455
yila	-10.9462
▁niv	-10.9525
nnna	-10.9532
sakak	-10.9562
aaccc	-10.9611
▁pela	-10.9618
kul	-10.9629
ds	-10.9633
bana	-10.9703
ovar	-10.9707
damu	-10.9756
▁rrr	-10.9803
▁aokkt	-10.9803
▁avi	-10.9809
▁eccila	-10.9812
▁har	-10.9827
anin	-10.9833
uciya	-10.9874
kicc	-10.9879
radu	-10.9881
ranj	-10.9887
samu	-10.9897
pattam	-10.9926
ttuuu	-10.9949
ici	-10.9961
ccar	-10.9992
adaran	-10.9999
ksa	-11.0048
ssttihkiak	-11.0048
ddad	-11.0085
aal	-11.0088
mimi	-11.0111
ttiiy	-11.012
nayaka	-11.0121
ramp	-11.0127
▁vaca	-11.0141
gar	-11.0164
▁uuu	-11.0171
uuttii	-11.0171
▁antara	-11.0204
nrr	-11.0205
iiit	-11.0212
lllaaamm	-11.0212
adru	-11.0232
annat	-11.0234
▁mik	-11.0258
▁mann	-11.0259
▁aassaa	-11.0264
vamillat	-11.0266
yyapp	-11.0293
kkk	-11.0308
iipp	-11.0364
yni	-11.0365
katam	-11.0366
▁ank	-11.037
ksi	-11.0401
innu	-11.0438
inna	-11.0512
rina	-11.0519
tte	-11.0524
aay	-11.0528
pru	-11.0544
arapu	-11.0559
ntar	-11.0571
aarm	-11.0595
aaanmnaa	-11.062
sssm	-11.0641
raaam	-11.0659
mra	-11.0681
paadt	-11.0686
kut	-11.0707
aniyam	-11.0714
aaayyyaaasss	-11.0729
yn	-11.0746
aku	-11.0747
aratti	-11.0762
esam	-11.0778
elic	-11.0803
aammhaa	-11.0805
▁mmu	-11.0821
▁bi	-11.0873
▁att	-11.0885
topa	-11.0887
adddhd	-11.0898
yiill	-11.0955
airi	-11.0978
aahhaamm	-11.1
rop	-11.1
▁parav	-11.1024
uyi	-11.1024
taatta	-11.1182
▁mmmaaannnt	-11.1187
▁irant	-11.1194
amaka	-11.1195
yod	-11.12
sar	-11.1216
alulla	-11.1263
tikkol	-11.1278
yli	-11.1286
mpa	-11.1292
nar	-11.1296
urn	-11.1304
vul	-11.1327
goo	-11.1335
taau	-11.1351
llllaad	-11.1368
alpet	-11.1385
ttai	-11.1459
uki	-11.1468
taranam	-11.1509
aiyana	-11.1509
hani	-11.1551
lllu	-11.1551
tttii	-11.1556
arram	-11.1573
ddu	-11.1575
sai	-11.1602
viis	-11.1614
hb	-11.1619
rruu	-11.1628
attuvam	-11.1635
erra	-11.1637
uut	-11.1648
antar	-11.1648
aannea	-11.1659
▁kanik	-11.1674
inl	-11.1677
uum	-11.1685
ksanam	-11.1696
yma	-11.1753
ida	-11.1766
sma	-11.1777
baijani	-11.1792
ugi	-11.1799
isa	-11.1815
rair	-11.1824
aiiirttr	-11.1831
vvy	-11.1871
tatn	-11.1877
▁uu	-11.1884
tya	-11.1898
aymam	-11.1904
iliya	-11.194
▁papp	-11.1944
om	-11.2006
vit	-11.2016
▁kka	-11.2017
rvi	-11.2075
mtaa	-11.2109
▁rajap	-11.211
uvv	-11.213
arree	-11.213
andh	-11.2135
isam	-11.2154
iiyy	-11.2161
tii	-11.2177
yyaii	-11.2213
irt	-11.2214
ykaa	-11.2257
tts	-11.2262
bl	-11.2287
▁pakt	-11.2332
eppu	-11.2333
▁mura	-11.2347
▁rri	-11.2389
ibr	-11.2412
opap	-11.2412
asnaan	-11.2422
▁gu	-11.2459
taru	-11.2465
akar	-11.2487
atana	-11.2498
jii	-11.2524
yaka	-11.2549
ankala	-11.2558
kyaya	-11.2611
titta	-11.2628
dyaaa	-11.2645
laamm	-11.2661
iiikkk	-11.2694
▁naga	-11.2704
lna	-11.2721
llaaa	-11.2736
asas	-11.2736
ppauu	-11.274
tui	-11.2764
ajne	-11.2778
opat	-11.2779
annnyyyaaayyyaaa	-11.2811
pvpaaa	-11.2824
sni	-11.2833
oa	-11.2844
agv	-11.2852
cciin	-11.2915
▁mau	-11.2944
yii	-11.2961
▁mai	-11.2964
▁natan	-11.2965
iikkaarra	-11.2978
yina	-11.299
aht	-11.304
dy	-11.3048
mand	-11.3057
nulla	-11.3088
aannnaaamm	-11.3114
▁kau	-11.3134
vma	-11.3193
▁kaykk	-11.3231
tamu	-11.3245
▁tant	-11.3249
tuu	-11.3261
cii	-11.327
ksaar	-11.3293
ccaann	-11.3321
tiyilla	-11.3331
rart	-11.3357
yelu	-11.3388
so	-11.3401
inn	-11.343
rk	-11.3461
yyaassaa	-11.349
dau	-11.3504
aayya	-11.351
rita	-11.3544
vin	-11.356
taya	-11.3613
heaa	-11.3631
dmdaa	-11.3792
ottal	-11.3862
lyan	-11.3878
ate	-11.3899
eeelll	-11.3928
aha	-11.3957
pur	-11.4014
▁aav	-11.4027
hna	-11.4049
pattiy	-11.4051
aaarrra	-11.4056
vvvaaattt	-11.4062
aadian	-11.4079
uar	-11.4121
oru	-11.414
rga	-11.4161
oookkka	-11.4238
aannaa	-11.4337
anum	-11.4347
icey	-11.442
ampan	-11.4467
pppuuu	-11.4516
nsu	-11.4562
llil	-11.4563
iir	-11.4584
aruma	-11.4676
yau	-11.4704
ita	-11.4746
stuti	-11.496
nait	-11.4973
rinta	-11.5147
smu	-11.5161
ami	-11.5231
tin	-11.525
aanm	-11.5253
nnnea	-11.5258
uur	-11.5263
▁kin	-11.5274
upu	-11.5312
nkd	-11.5327
iil	-11.5331
darava	-11.5337
suuun	-11.5378
maay	-11.5391
ait	-11.5416
rka	-11.5484
▁natakk	-11.5556
kr	-11.5562
unte	-11.5702
▁talak	-11.5713
aatttt	-11.5737
naaam	-11.5754
hikka	-11.5758
saal	-11.5769
▁vvvaaak	-11.586
tva	-11.5993
rika	-11.6009
▁kkka	-11.6097
ama	-11.6121
anamaya	-11.6141
eetr	-11.6236
lni	-11.625
ankaram	-11.6278
mankala	-11.6282
daya	-11.6369
rki	-11.638
nnggi	-11.638
lakku	-11.6414
mnaaa	-11.6478
rcu	-11.6492
hhhaaa	-11.6511
ilakk	-11.6576
mau	-11.6626
ppat	-11.6643
▁alpa	-11.6678
aanng	-11.6679
tot	-11.6688
kiak	-11.6699
atar	-11.6726
ompu	-11.6748
sr	-11.676
acce	-11.6791
▁ne	-11.6851
nra	-11.6864
tun	-11.6903
▁ji	-11.6959
rree	-11.6973
nantnt	-11.6975
aasm	-11.6978
atya	-11.6996
anen	-11.7019
▁rey	-11.7027
iilll	-11.7057
kac	-11.7062
din	-11.7066
arpo	-11.7114
rre	-11.7131
alan	-11.715
▁elut	-11.7164
ntu	-11.7219
nkulal	-11.7236
▁kasa	-11.728
ciyama	-11.7334
ktt	-11.7356
